#ifndef DHT_ANOMALY_MODEL_H_
#define DHT_ANOMALY_MODEL_H_


const unsigned char dht_anomaly_model_tflite[] = {
0x1c, 0x0, 0x0, 0x0, 0x54, 0x46, 0x4c, 0x33, 0x14, 0x0, 0x20, 0x0,
0x1c, 0x0, 0x18, 0x0, 0x14, 0x0, 0x10, 0x0, 0xc, 0x0, 0x0, 0x0,
0x8, 0x0, 0x4, 0x0, 0x14, 0x0, 0x0, 0x0, 0x1c, 0x0, 0x0, 0x0,
0x98, 0x0, 0x0, 0x0, 0xf0, 0x0, 0x0, 0x0, 0x38, 0x7, 0x0, 0x0,
0x48, 0x7, 0x0, 0x0, 0xc, 0xd, 0x0, 0x0, 0x3, 0x0, 0x0, 0x0,
0x1, 0x0, 0x0, 0x0, 0x10, 0x0, 0x0, 0x0, 0x0, 0x0, 0xa, 0x0,
0x10, 0x0, 0xc, 0x0, 0x8, 0x0, 0x4, 0x0, 0xa, 0x0, 0x0, 0x0,
0xc, 0x0, 0x0, 0x0, 0x1c, 0x0, 0x0, 0x0, 0x3c, 0x0, 0x0, 0x0,
0xf, 0x0, 0x0, 0x0, 0x73, 0x65, 0x72, 0x76, 0x69, 0x6e, 0x67, 0x5f,
0x64, 0x65, 0x66, 0x61, 0x75, 0x6c, 0x74, 0x0, 0x1, 0x0, 0x0, 0x0,
0x4, 0x0, 0x0, 0x0, 0x90, 0xff, 0xff, 0xff, 0xa, 0x0, 0x0, 0x0,
0x4, 0x0, 0x0, 0x0, 0x8, 0x0, 0x0, 0x0, 0x6f, 0x75, 0x74, 0x70,
0x75, 0x74, 0x5f, 0x30, 0x0, 0x0, 0x0, 0x0, 0x1, 0x0, 0x0, 0x0,
0x4, 0x0, 0x0, 0x0, 0xae, 0xf8, 0xff, 0xff, 0x4, 0x0, 0x0, 0x0,
0xc, 0x0, 0x0, 0x0, 0x6b, 0x65, 0x72, 0x61, 0x73, 0x5f, 0x74, 0x65,
0x6e, 0x73, 0x6f, 0x72, 0x0, 0x0, 0x0, 0x0, 0x2, 0x0, 0x0, 0x0,
0x34, 0x0, 0x0, 0x0, 0x4, 0x0, 0x0, 0x0, 0xdc, 0xff, 0xff, 0xff,
0xd, 0x0, 0x0, 0x0, 0x4, 0x0, 0x0, 0x0, 0x13, 0x0, 0x0, 0x0,
0x43, 0x4f, 0x4e, 0x56, 0x45, 0x52, 0x53, 0x49, 0x4f, 0x4e, 0x5f, 0x4d,
0x45, 0x54, 0x41, 0x44, 0x41, 0x54, 0x41, 0x0, 0x8, 0x0, 0xc, 0x0,
0x8, 0x0, 0x4, 0x0, 0x8, 0x0, 0x0, 0x0, 0xc, 0x0, 0x0, 0x0,
0x4, 0x0, 0x0, 0x0, 0x13, 0x0, 0x0, 0x0, 0x6d, 0x69, 0x6e, 0x5f,
0x72, 0x75, 0x6e, 0x74, 0x69, 0x6d, 0x65, 0x5f, 0x76, 0x65, 0x72, 0x73,
0x69, 0x6f, 0x6e, 0x0, 0xe, 0x0, 0x0, 0x0, 0x44, 0x6, 0x0, 0x0,
0x3c, 0x6, 0x0, 0x0, 0xec, 0x5, 0x0, 0x0, 0xdc, 0x3, 0x0, 0x0,
0xc4, 0x3, 0x0, 0x0, 0x94, 0x3, 0x0, 0x0, 0x44, 0x3, 0x0, 0x0,
0xb4, 0x0, 0x0, 0x0, 0xac, 0x0, 0x0, 0x0, 0xa4, 0x0, 0x0, 0x0,
0x9c, 0x0, 0x0, 0x0, 0x94, 0x0, 0x0, 0x0, 0x74, 0x0, 0x0, 0x0,
0x4, 0x0, 0x0, 0x0, 0x62, 0xf9, 0xff, 0xff, 0x4, 0x0, 0x0, 0x0,
0x60, 0x0, 0x0, 0x0, 0xc, 0x0, 0x0, 0x0, 0x8, 0x0, 0xe, 0x0,
0x8, 0x0, 0x4, 0x0, 0x8, 0x0, 0x0, 0x0, 0x10, 0x0, 0x0, 0x0,
0x28, 0x0, 0x0, 0x0, 0x0, 0x0, 0x6, 0x0, 0x8, 0x0, 0x4, 0x0,
0x6, 0x0, 0x0, 0x0, 0x4, 0x0, 0x0, 0x0, 0x1, 0x0, 0x0, 0x0,
0xea, 0x3, 0x0, 0x0, 0xc, 0x0, 0x18, 0x0, 0x14, 0x0, 0x10, 0x0,
0xc, 0x0, 0x4, 0x0, 0xc, 0x0, 0x0, 0x0, 0xa, 0x32, 0x1d, 0x17,
0x28, 0x1f, 0x74, 0x28, 0x2, 0x0, 0x0, 0x0, 0x2, 0x0, 0x0, 0x0,
0x4, 0x0, 0x0, 0x0, 0x6, 0x0, 0x0, 0x0, 0x32, 0x2e, 0x31, 0x39,
0x2e, 0x30, 0x0, 0x0, 0xce, 0xf9, 0xff, 0xff, 0x4, 0x0, 0x0, 0x0,
0x10, 0x0, 0x0, 0x0, 0x31, 0x2e, 0x35, 0x2e, 0x30, 0x0, 0x0, 0x0,
0x0, 0x0, 0x0, 0x0, 0x0, 0x0, 0x0, 0x0, 0xd4, 0xf4, 0xff, 0xff,
0xd8, 0xf4, 0xff, 0xff, 0xdc, 0xf4, 0xff, 0xff, 0xe0, 0xf4, 0xff, 0xff,
0xfa, 0xf9, 0xff, 0xff, 0x4, 0x0, 0x0, 0x0, 0x80, 0x2, 0x0, 0x0,
0xb2, 0x1a, 0xf7, 0xbd, 0xf2, 0xf5, 0xe4, 0x3e, 0xeb, 0x14, 0x1e, 0xbe,
0xf2, 0x6d, 0xc5, 0x3e, 0xb5, 0xd2, 0x5, 0xbe, 0x94, 0x7f, 0xf8, 0x3c,
0x56, 0x22, 0xdf, 0x3e, 0x1a, 0x2d, 0xd2, 0x3d, 0xdc, 0xa1, 0xcd, 0xbd,
0xdc, 0xdb, 0xcc, 0x3e, 0x53, 0x27, 0xe8, 0xbd, 0x30, 0x94, 0xe1, 0xbc,
0x1b, 0xa9, 0x94, 0xbe, 0x2, 0xd9, 0x74, 0xbe, 0x6a, 0xcf, 0x4a, 0xbe,
0xaa, 0x84, 0x36, 0x3e, 0x40, 0xb9, 0x86, 0x3e, 0x52, 0xba, 0xb5, 0xbe,
0x6e, 0x9c, 0xb6, 0x3e, 0xdd, 0xc4, 0xe8, 0x3e, 0xa0, 0xc, 0x39, 0xbd,
0xc1, 0x37, 0x85, 0xbe, 0x60, 0x71, 0x4e, 0xbe, 0x13, 0xeb, 0xee, 0xbe,
0x22, 0xc7, 0x26, 0xbe, 0xc5, 0x48, 0xca, 0xbe, 0x54, 0xe9, 0xbe, 0x3e,
0x32, 0x3f, 0xb7, 0xbe, 0x1c, 0x60, 0x83, 0xbe, 0xa0, 0xb8, 0x50, 0xbe,
0xc6, 0xe9, 0xc1, 0x3e, 0xf7, 0x58, 0x13, 0xbc, 0x88, 0x47, 0xaa, 0x3e,
0x38, 0xeb, 0xb4, 0xbd, 0xe4, 0x5f, 0x70, 0xbe, 0xaf, 0x42, 0x7a, 0x3e,
0x41, 0x6a, 0xdf, 0xbe, 0xe, 0x16, 0x74, 0xbe, 0x1a, 0x40, 0xae, 0xbc,
0xe5, 0x71, 0x8b, 0xbe, 0xa9, 0x2c, 0x31, 0x3e, 0xa2, 0x56, 0x44, 0x3e,
0xf0, 0xff, 0xf3, 0x3e, 0xa8, 0xb1, 0x52, 0x3e, 0xd9, 0xb6, 0xb8, 0x3e,
0xb2, 0x24, 0xc4, 0xbd, 0xbc, 0x74, 0x40, 0xbd, 0x35, 0xf1, 0x81, 0x3e,
0x14, 0xb5, 0x4, 0xbf, 0x36, 0x8f, 0xc9, 0x3e, 0xb8, 0xae, 0x66, 0x3e,
0x40, 0xfd, 0x42, 0x3d, 0xa8, 0x89, 0x43, 0xbe, 0x27, 0x1c, 0xd9, 0xbe,
0x99, 0xa3, 0xa2, 0xbe, 0xe9, 0x1b, 0x7d, 0xbe, 0xb0, 0xa7, 0x52, 0x3e,
0x12, 0x43, 0x91, 0xbe, 0xbe, 0xb4, 0x91, 0xbe, 0xf0, 0x67, 0xa6, 0xbe,
0x2, 0x55, 0x69, 0xbe, 0xc9, 0x66, 0xa3, 0xbe, 0x58, 0x69, 0x6b, 0x3c,
0x10, 0xa1, 0x1c, 0x3e, 0x11, 0xe3, 0x38, 0x3b, 0x71, 0x75, 0x9a, 0xbd,
0x86, 0x45, 0x76, 0xbe, 0xeb, 0xc7, 0xff, 0x3c, 0x2e, 0x40, 0x1, 0x3f,
0xe8, 0x1, 0x6e, 0x3e, 0x66, 0x83, 0x22, 0xbe, 0xb8, 0xe, 0xcd, 0xbe,
0x54, 0x66, 0xd3, 0xbe, 0x50, 0xfd, 0x50, 0x3e, 0x26, 0x3d, 0xcf, 0xbe,
0x10, 0x10, 0xa3, 0x3e, 0xe7, 0xc7, 0xe8, 0xbe, 0x44, 0x63, 0xb6, 0xbd,
0x52, 0x55, 0x45, 0xbe, 0xb8, 0x80, 0xa0, 0x3d, 0xa8, 0x30, 0xef, 0xbe,
0x38, 0xb2, 0x33, 0x3e, 0x81, 0xd6, 0x34, 0xbd, 0xf7, 0x29, 0x7a, 0x3e,
0x89, 0xc4, 0xa8, 0xbe, 0x5f, 0xfe, 0x75, 0xbe, 0x69, 0x5a, 0x5f, 0x3e,
0xc0, 0xc6, 0x8d, 0x3d, 0x40, 0xdf, 0x36, 0x3e, 0x9f, 0x16, 0x4, 0xbd,
0xf6, 0x2f, 0xb1, 0xbe, 0xf8, 0x79, 0x71, 0x3e, 0xfc, 0x59, 0x70, 0x3e,
0x64, 0x35, 0xa6, 0xbd, 0x38, 0xf1, 0xd9, 0xbe, 0xe8, 0xf5, 0xee, 0x3d,
0x10, 0x3, 0x97, 0x3d, 0xe9, 0x4e, 0xc4, 0xbe, 0x82, 0xcf, 0xb5, 0x3e,
0x9f, 0x9, 0x93, 0xbe, 0xd6, 0x90, 0xa, 0xbd, 0x33, 0x75, 0xdd, 0x3e,
0x16, 0xa9, 0x87, 0xbe, 0x47, 0x8b, 0xba, 0x3d, 0xd2, 0x3f, 0xac, 0x3d,
0x82, 0x4a, 0x69, 0x3c, 0x9c, 0x97, 0xe5, 0xbe, 0xf8, 0xe2, 0x87, 0xbe,
0x5e, 0x22, 0x46, 0x3f, 0xf8, 0xa, 0xd8, 0x3e, 0xe2, 0x43, 0xb8, 0x3e,
0x8d, 0xde, 0x66, 0x3e, 0xd, 0x20, 0x4b, 0x3e, 0xd, 0xff, 0xe5, 0x3c,
0xd, 0xdf, 0x8, 0xbf, 0xb1, 0xf2, 0xc1, 0x3e, 0x4e, 0xff, 0xcc, 0xbe,
0xbe, 0x51, 0xe2, 0xbd, 0xdf, 0x5f, 0xd7, 0x3e, 0xca, 0x6d, 0xfb, 0xbe,
0x21, 0xb1, 0x7c, 0x3e, 0xa, 0xa4, 0x38, 0xbe, 0xea, 0x94, 0xd2, 0xba,
0xc1, 0xf, 0x1a, 0x3f, 0xde, 0x22, 0xe3, 0x3e, 0x61, 0x9, 0xb4, 0x3d,
0x7c, 0xe7, 0x3a, 0x3e, 0x85, 0xc7, 0x1a, 0xbe, 0xe2, 0xbf, 0x95, 0xbc,
0x4b, 0x74, 0x4, 0xbf, 0x93, 0xbf, 0x23, 0xbe, 0xdb, 0x74, 0xf9, 0x3e,
0xce, 0x85, 0x82, 0xbd, 0xba, 0x5c, 0xbf, 0xbe, 0xff, 0xd2, 0x0, 0xbe,
0x8b, 0x4b, 0x85, 0x3d, 0xb1, 0xa9, 0x28, 0xbe, 0x77, 0x73, 0xe9, 0x3d,
0xeb, 0x47, 0x3d, 0x3f, 0x50, 0x92, 0xb9, 0x3e, 0x0, 0x56, 0x5, 0x3f,
0x9c, 0x67, 0x74, 0xbe, 0x2c, 0x8d, 0x97, 0x3e, 0xaa, 0x25, 0x29, 0x3d,
0x7a, 0x55, 0x78, 0xbd, 0x63, 0xa7, 0x25, 0x3e, 0x9a, 0x74, 0xb8, 0xbd,
0x95, 0x56, 0x52, 0xbe, 0x18, 0xa2, 0x29, 0xbf, 0x7a, 0x16, 0x7c, 0x3e,
0x4, 0x44, 0xd, 0x3f, 0x67, 0x6, 0xdb, 0x3e, 0xc2, 0xf6, 0xf3, 0x3e,
0x1f, 0xa, 0xf4, 0xbe, 0x47, 0x93, 0x98, 0xbc, 0x72, 0xf3, 0xcf, 0xbe,
0x11, 0x5e, 0xed, 0x3d, 0x86, 0x4b, 0x9a, 0x3e, 0x9d, 0xee, 0x9c, 0x3d,
0x8f, 0xcc, 0x89, 0x3e, 0x86, 0xfc, 0xff, 0xff, 0x4, 0x0, 0x0, 0x0,
0x40, 0x0, 0x0, 0x0, 0xaf, 0xca, 0x5b, 0x3d, 0x66, 0xeb, 0x31, 0xbf,
0x0, 0x0, 0x0, 0x0, 0x98, 0x21, 0xc, 0xbd, 0x69, 0xdc, 0xd3, 0x3e,
0x0, 0x0, 0x0, 0x0, 0xa0, 0x13, 0x9a, 0xbf, 0x0, 0x0, 0x0, 0x0,
0xe1, 0x3e, 0x5c, 0x3d, 0x0, 0x0, 0x0, 0x0, 0xfb, 0x9a, 0xd2, 0xbe,
0xfd, 0x77, 0x95, 0xbf, 0x60, 0x46, 0x9, 0xbf, 0xc9, 0xa5, 0x1e, 0xbf,
0xe6, 0x6c, 0xea, 0xbe, 0xaa, 0x67, 0x8b, 0x3f, 0xd2, 0xfc, 0xff, 0xff,
0x4, 0x0, 0x0, 0x0, 0x20, 0x0, 0x0, 0x0, 0x0, 0x0, 0x0, 0x0,
0xbd, 0x66, 0x60, 0xbd, 0x8c, 0xba, 0x36, 0xbd, 0x59, 0x28, 0x6, 0xbf,
0x5f, 0x95, 0x4a, 0xbd, 0xbb, 0x80, 0x7f, 0xbf, 0x1d, 0xa2, 0x45, 0xbd,
0x74, 0x3, 0x7, 0x3f, 0xfe, 0xfc, 0xff, 0xff, 0x4, 0x0, 0x0, 0x0,
0x8, 0x0, 0x0, 0x0, 0x94, 0x8b, 0x19, 0x3f, 0x97, 0x8b, 0x19, 0xbf,
0x12, 0xfd, 0xff, 0xff, 0x4, 0x0, 0x0, 0x0, 0x0, 0x2, 0x0, 0x0,
0x4, 0x37, 0xc8, 0xbe, 0x50, 0xd8, 0x99, 0xbe, 0xa4, 0xa, 0xcc, 0x3e,
0x8, 0x4a, 0x69, 0xbe, 0x90, 0x84, 0x38, 0xbe, 0x0, 0x97, 0x48, 0x3c,
0x70, 0x0, 0xb9, 0xbe, 0xfc, 0xdb, 0xab, 0x3e, 0xd0, 0x22, 0x83, 0x3d,
0x78, 0x52, 0xee, 0xbe, 0xd8, 0xd0, 0x5e, 0x3e, 0xf0, 0xc0, 0xc9, 0xbd,
0x20, 0x2d, 0xd7, 0xbe, 0x80, 0x6c, 0x22, 0x3e, 0xc8, 0x72, 0x7d, 0x3e,
0x28, 0x7a, 0xb4, 0xbe, 0x86, 0x97, 0xe8, 0x3d, 0xe3, 0x8e, 0xb5, 0xbd,
0x60, 0xde, 0x10, 0x3d, 0x3a, 0x6a, 0xeb, 0xbe, 0x9b, 0x2e, 0x7d, 0x3d,
0x38, 0x55, 0x97, 0xbe, 0x50, 0x42, 0x73, 0xbd, 0xc0, 0xf4, 0x2, 0xbd,
0x6b, 0x6e, 0xd8, 0xbe, 0x78, 0x99, 0x18, 0xbe, 0x53, 0x8b, 0xe5, 0xbd,
0x7, 0xcc, 0x1b, 0x3e, 0x82, 0x9a, 0xa4, 0xbe, 0xaf, 0x24, 0x84, 0xbe,
0xf0, 0xea, 0x33, 0x3e, 0x6, 0x47, 0xeb, 0xbe, 0x95, 0x66, 0xd1, 0xbd,
0xa9, 0xb5, 0xa0, 0xbe, 0x48, 0xcd, 0x3e, 0xbe, 0x64, 0xcf, 0xd1, 0x3e,
0x4a, 0x39, 0x9e, 0x3d, 0xd0, 0xfd, 0xa9, 0x3d, 0xd6, 0x91, 0xcb, 0x3e,
0xc0, 0x2a, 0x62, 0x3e, 0x69, 0xfa, 0xc9, 0xbe, 0xd4, 0x5f, 0xa1, 0x3e,
0x90, 0x3b, 0x47, 0xbe, 0x65, 0xd5, 0xc2, 0x3d, 0x80, 0x63, 0x88, 0xbe,
0x56, 0xe0, 0x9a, 0xbe, 0x24, 0x5c, 0xf3, 0xbe, 0x2, 0xa6, 0xa8, 0xbd,
0x8c, 0xfb, 0xd, 0x3f, 0x74, 0x27, 0xb5, 0x3e, 0x0, 0x48, 0xf5, 0xba,
0x63, 0x28, 0x21, 0xbd, 0x39, 0x7c, 0x91, 0x3e, 0xc0, 0x95, 0xe5, 0xbd,
0x42, 0x15, 0x25, 0xbe, 0xa8, 0x83, 0x7c, 0x3e, 0x83, 0x41, 0xaf, 0xbe,
0x90, 0x8f, 0x3a, 0x3e, 0x43, 0x60, 0x34, 0xbf, 0x55, 0x43, 0xe0, 0xbc,
0x6f, 0xd6, 0xe, 0x3f, 0x8e, 0x8b, 0x19, 0xbf, 0xe9, 0x87, 0x2, 0x3f,
0x56, 0x22, 0xa1, 0xbe, 0x3d, 0x23, 0x73, 0x3d, 0xfd, 0x97, 0xd9, 0x3e,
0x28, 0x34, 0x98, 0x3e, 0x7a, 0xbe, 0xc7, 0x3e, 0x58, 0xe6, 0xba, 0xbe,
0x3c, 0xe5, 0x90, 0x3e, 0xa1, 0x38, 0xcc, 0xbe, 0xa0, 0x43, 0x62, 0xbe,
0x5c, 0xc2, 0xb7, 0x3e, 0xc0, 0x5b, 0x3, 0x3e, 0x46, 0x9a, 0x30, 0x3e,
0x8d, 0x6f, 0x67, 0x3e, 0xb9, 0x55, 0x48, 0xbe, 0xf1, 0x59, 0x7d, 0xbe,
0x11, 0x38, 0x14, 0x3e, 0x0, 0xe5, 0xbe, 0x3d, 0x3b, 0x1d, 0xfc, 0x3e,
0xfe, 0xd, 0xac, 0x3e, 0xb8, 0x58, 0xb8, 0x3e, 0x18, 0x57, 0x5f, 0xbe,
0xb0, 0xdb, 0x5c, 0x3e, 0xb4, 0xc9, 0xb4, 0x3e, 0xb, 0xd6, 0xc5, 0x3f,
0xc0, 0xfd, 0xae, 0x3d, 0x63, 0xd7, 0xd6, 0x3e, 0x8c, 0x89, 0xa2, 0x3e,
0xc2, 0x4c, 0xfd, 0x3d, 0x6, 0x0, 0x8a, 0x3d, 0x74, 0x7d, 0x8b, 0xbe,
0x81, 0x43, 0x16, 0x3f, 0x47, 0x5b, 0xc3, 0x3f, 0xcc, 0x95, 0x43, 0xbe,
0x7c, 0x53, 0x1, 0xbf, 0xd1, 0x60, 0xd5, 0x3e, 0xb8, 0xb8, 0xff, 0x3e,
0x9, 0x81, 0x86, 0xbc, 0xb0, 0x5f, 0x8d, 0x3e, 0xfc, 0x3e, 0x8a, 0xbe,
0x4c, 0x46, 0x83, 0x3d, 0x70, 0x6c, 0x9e, 0x3d, 0x19, 0xd4, 0xb8, 0x3e,
0x0, 0xd, 0xcb, 0x3e, 0xd4, 0x6a, 0xc0, 0xbe, 0x29, 0xb3, 0xa, 0xbf,
0xe3, 0x69, 0x1, 0x3e, 0xa2, 0xe3, 0xe1, 0x3d, 0x18, 0xca, 0x18, 0xbe,
0xe, 0x46, 0xcf, 0xbe, 0x8, 0x51, 0xe, 0x3e, 0xde, 0x8b, 0xa2, 0xbe,
0xbc, 0xaf, 0xa8, 0xbe, 0x74, 0xb9, 0x2c, 0x3e, 0x4c, 0x7, 0xd1, 0x3e,
0x74, 0x63, 0xfa, 0x3e, 0xbe, 0x93, 0xae, 0xbe, 0x0, 0x6, 0x98, 0xbe,
0x41, 0x98, 0xf, 0x3e, 0x20, 0xa6, 0x86, 0xbd, 0xb, 0xe8, 0x6c, 0xbe,
0xd5, 0x1c, 0x98, 0xbe, 0x8b, 0x33, 0xb2, 0xbe, 0xd0, 0xc0, 0x8f, 0xbe,
0xb8, 0x4e, 0xd5, 0xbf, 0x66, 0x60, 0x84, 0x3e, 0x1e, 0xff, 0xff, 0xff,
0x4, 0x0, 0x0, 0x0, 0x40, 0x0, 0x0, 0x0, 0x40, 0x46, 0x87, 0x3e,
0xfd, 0xfe, 0xfc, 0x3d, 0xe8, 0xc2, 0x26, 0x3f, 0x1, 0xcf, 0x87, 0xbf,
0xe9, 0xb2, 0xda, 0x3e, 0xf3, 0x61, 0x3c, 0xbe, 0x8e, 0x11, 0x10, 0x3f,
0xf3, 0x86, 0x8, 0x3f, 0xa9, 0xb1, 0xa4, 0xbe, 0x80, 0x7f, 0x9d, 0x3d,
0x86, 0x3, 0x2, 0xbf, 0x31, 0xb, 0x6c, 0xbe, 0x48, 0x8b, 0x25, 0xbd,
0xac, 0x6, 0x89, 0x3d, 0x35, 0xdb, 0x70, 0x3e, 0xf3, 0x36, 0x6c, 0xbf,
0x54, 0xfa, 0xff, 0xff, 0x58, 0xfa, 0xff, 0xff, 0xf, 0x0, 0x0, 0x0,
0x4d, 0x4c, 0x49, 0x52, 0x20, 0x43, 0x6f, 0x6e, 0x76, 0x65, 0x72, 0x74,
0x65, 0x64, 0x2e, 0x0, 0x1, 0x0, 0x0, 0x0, 0x14, 0x0, 0x0, 0x0,
0x0, 0x0, 0xe, 0x0, 0x18, 0x0, 0x14, 0x0, 0x10, 0x0, 0xc, 0x0,
0x8, 0x0, 0x4, 0x0, 0xe, 0x0, 0x0, 0x0, 0x14, 0x0, 0x0, 0x0,
0x1c, 0x0, 0x0, 0x0, 0x34, 0x1, 0x0, 0x0, 0x38, 0x1, 0x0, 0x0,
0x3c, 0x1, 0x0, 0x0, 0x4, 0x0, 0x0, 0x0, 0x6d, 0x61, 0x69, 0x6e,
0x0, 0x0, 0x0, 0x0, 0x4, 0x0, 0x0, 0x0, 0xdc, 0x0, 0x0, 0x0,
0x94, 0x0, 0x0, 0x0, 0x50, 0x0, 0x0, 0x0, 0x14, 0x0, 0x0, 0x0,
0x0, 0x0, 0xe, 0x0, 0x1a, 0x0, 0x14, 0x0, 0x10, 0x0, 0xc, 0x0,
0xb, 0x0, 0x4, 0x0, 0xe, 0x0, 0x0, 0x0, 0x1c, 0x0, 0x0, 0x0,
0x0, 0x0, 0x0, 0x9, 0x1c, 0x0, 0x0, 0x0, 0x20, 0x0, 0x0, 0x0,
0x1, 0x0, 0x0, 0x0, 0x0, 0x0, 0x6, 0x0, 0x8, 0x0, 0x4, 0x0,
0x6, 0x0, 0x0, 0x0, 0x0, 0x0, 0x80, 0x3f, 0x1, 0x0, 0x0, 0x0,
0xa, 0x0, 0x0, 0x0, 0x1, 0x0, 0x0, 0x0, 0x9, 0x0, 0x0, 0x0,
0xce, 0xff, 0xff, 0xff, 0x10, 0x0, 0x0, 0x0, 0x0, 0x0, 0x0, 0x8,
0xc, 0x0, 0x0, 0x0, 0x10, 0x0, 0x0, 0x0, 0x1c, 0xfb, 0xff, 0xff,
0x1, 0x0, 0x0, 0x0, 0x9, 0x0, 0x0, 0x0, 0x3, 0x0, 0x0, 0x0,
0x8, 0x0, 0x0, 0x0, 0x1, 0x0, 0x0, 0x0, 0x3, 0x0, 0x0, 0x0,
0x0, 0x0, 0xe, 0x0, 0x14, 0x0, 0x0, 0x0, 0x10, 0x0, 0xc, 0x0,
0xb, 0x0, 0x4, 0x0, 0xe, 0x0, 0x0, 0x0, 0x10, 0x0, 0x0, 0x0,
0x0, 0x0, 0x0, 0x8, 0x10, 0x0, 0x0, 0x0, 0x14, 0x0, 0x0, 0x0,
0xba, 0xff, 0xff, 0xff, 0x0, 0x0, 0x0, 0x1, 0x1, 0x0, 0x0, 0x0,
0x8, 0x0, 0x0, 0x0, 0x3, 0x0, 0x0, 0x0, 0x7, 0x0, 0x0, 0x0,
0x2, 0x0, 0x0, 0x0, 0x4, 0x0, 0x0, 0x0, 0x0, 0x0, 0xe, 0x0,
0x16, 0x0, 0x0, 0x0, 0x10, 0x0, 0xc, 0x0, 0xb, 0x0, 0x4, 0x0,
0xe, 0x0, 0x0, 0x0, 0x18, 0x0, 0x0, 0x0, 0x0, 0x0, 0x0, 0x8,
0x18, 0x0, 0x0, 0x0, 0x1c, 0x0, 0x0, 0x0, 0x0, 0x0, 0x6, 0x0,
0x8, 0x0, 0x7, 0x0, 0x6, 0x0, 0x0, 0x0, 0x0, 0x0, 0x0, 0x1,
0x1, 0x0, 0x0, 0x0, 0x7, 0x0, 0x0, 0x0, 0x3, 0x0, 0x0, 0x0,
0x0, 0x0, 0x0, 0x0, 0x6, 0x0, 0x0, 0x0, 0x5, 0x0, 0x0, 0x0,
0x1, 0x0, 0x0, 0x0, 0xa, 0x0, 0x0, 0x0, 0x1, 0x0, 0x0, 0x0,
0x0, 0x0, 0x0, 0x0, 0xb, 0x0, 0x0, 0x0, 0xfc, 0x3, 0x0, 0x0,
0xa4, 0x3, 0x0, 0x0, 0x4c, 0x3, 0x0, 0x0, 0x10, 0x3, 0x0, 0x0,
0xb4, 0x2, 0x0, 0x0, 0x5c, 0x2, 0x0, 0x0, 0x10, 0x2, 0x0, 0x0,
0x7c, 0x1, 0x0, 0x0, 0xe0, 0x0, 0x0, 0x0, 0x60, 0x0, 0x0, 0x0,
0x4, 0x0, 0x0, 0x0, 0x46, 0xfc, 0xff, 0xff, 0x0, 0x0, 0x0, 0x1,
0x14, 0x0, 0x0, 0x0, 0x1c, 0x0, 0x0, 0x0, 0x1c, 0x0, 0x0, 0x0,
0xb, 0x0, 0x0, 0x0, 0x34, 0x0, 0x0, 0x0, 0x2, 0x0, 0x0, 0x0,
0xff, 0xff, 0xff, 0xff, 0x2, 0x0, 0x0, 0x0, 0x30, 0xfc, 0xff, 0xff,
0x1b, 0x0, 0x0, 0x0, 0x53, 0x74, 0x61, 0x74, 0x65, 0x66, 0x75, 0x6c,
0x50, 0x61, 0x72, 0x74, 0x69, 0x74, 0x69, 0x6f, 0x6e, 0x65, 0x64, 0x43,
0x61, 0x6c, 0x6c, 0x5f, 0x31, 0x3a, 0x30, 0x0, 0x2, 0x0, 0x0, 0x0,
0x1, 0x0, 0x0, 0x0, 0x2, 0x0, 0x0, 0x0, 0x9e, 0xfc, 0xff, 0xff,
0x0, 0x0, 0x0, 0x1, 0x14, 0x0, 0x0, 0x0, 0x1c, 0x0, 0x0, 0x0,
0x1c, 0x0, 0x0, 0x0, 0xa, 0x0, 0x0, 0x0, 0x58, 0x0, 0x0, 0x0,
0x2, 0x0, 0x0, 0x0, 0xff, 0xff, 0xff, 0xff, 0x2, 0x0, 0x0, 0x0,
0x88, 0xfc, 0xff, 0xff, 0x3c, 0x0, 0x0, 0x0, 0x73, 0x65, 0x71, 0x75,
0x65, 0x6e, 0x74, 0x69, 0x61, 0x6c, 0x5f, 0x31, 0x2f, 0x64, 0x65, 0x6e,
0x73, 0x65, 0x5f, 0x32, 0x5f, 0x31, 0x2f, 0x4d, 0x61, 0x74, 0x4d, 0x75,
0x6c, 0x3b, 0x73, 0x65, 0x71, 0x75, 0x65, 0x6e, 0x74, 0x69, 0x61, 0x6c,
0x5f, 0x31, 0x2f, 0x64, 0x65, 0x6e, 0x73, 0x65, 0x5f, 0x32, 0x5f, 0x31,
0x2f, 0x42, 0x69, 0x61, 0x73, 0x41, 0x64, 0x64, 0x0, 0x0, 0x0, 0x0,
0x2, 0x0, 0x0, 0x0, 0x1, 0x0, 0x0, 0x0, 0x2, 0x0, 0x0, 0x0,
0x1a, 0xfd, 0xff, 0xff, 0x0, 0x0, 0x0, 0x1, 0x14, 0x0, 0x0, 0x0,
0x1c, 0x0, 0x0, 0x0, 0x1c, 0x0, 0x0, 0x0, 0x9, 0x0, 0x0, 0x0,
0x74, 0x0, 0x0, 0x0, 0x2, 0x0, 0x0, 0x0, 0xff, 0xff, 0xff, 0xff,
0x8, 0x0, 0x0, 0x0, 0x4, 0xfd, 0xff, 0xff, 0x58, 0x0, 0x0, 0x0,
0x73, 0x65, 0x71, 0x75, 0x65, 0x6e, 0x74, 0x69, 0x61, 0x6c, 0x5f, 0x31,
0x2f, 0x64, 0x65, 0x6e, 0x73, 0x65, 0x5f, 0x31, 0x5f, 0x32, 0x2f, 0x4d,
0x61, 0x74, 0x4d, 0x75, 0x6c, 0x3b, 0x73, 0x65, 0x71, 0x75, 0x65, 0x6e,
0x74, 0x69, 0x61, 0x6c, 0x5f, 0x31, 0x2f, 0x64, 0x65, 0x6e, 0x73, 0x65,
0x5f, 0x31, 0x5f, 0x32, 0x2f, 0x52, 0x65, 0x6c, 0x75, 0x3b, 0x73, 0x65,
0x71, 0x75, 0x65, 0x6e, 0x74, 0x69, 0x61, 0x6c, 0x5f, 0x31, 0x2f, 0x64,
0x65, 0x6e, 0x73, 0x65, 0x5f, 0x31, 0x5f, 0x32, 0x2f, 0x42, 0x69, 0x61,
0x73, 0x41, 0x64, 0x64, 0x0, 0x0, 0x0, 0x0, 0x2, 0x0, 0x0, 0x0,
0x1, 0x0, 0x0, 0x0, 0x8, 0x0, 0x0, 0x0, 0xb2, 0xfd, 0xff, 0xff,
0x0, 0x0, 0x0, 0x1, 0x14, 0x0, 0x0, 0x0, 0x1c, 0x0, 0x0, 0x0,
0x1c, 0x0, 0x0, 0x0, 0x8, 0x0, 0x0, 0x0, 0x6c, 0x0, 0x0, 0x0,
0x2, 0x0, 0x0, 0x0, 0xff, 0xff, 0xff, 0xff, 0x10, 0x0, 0x0, 0x0,
0x9c, 0xfd, 0xff, 0xff, 0x52, 0x0, 0x0, 0x0, 0x73, 0x65, 0x71, 0x75,
0x65, 0x6e, 0x74, 0x69, 0x61, 0x6c, 0x5f, 0x31, 0x2f, 0x64, 0x65, 0x6e,
0x73, 0x65, 0x5f, 0x31, 0x2f, 0x4d, 0x61, 0x74, 0x4d, 0x75, 0x6c, 0x3b,
0x73, 0x65, 0x71, 0x75, 0x65, 0x6e, 0x74, 0x69, 0x61, 0x6c, 0x5f, 0x31,
0x2f, 0x64, 0x65, 0x6e, 0x73, 0x65, 0x5f, 0x31, 0x2f, 0x52, 0x65, 0x6c,
0x75, 0x3b, 0x73, 0x65, 0x71, 0x75, 0x65, 0x6e, 0x74, 0x69, 0x61, 0x6c,
0x5f, 0x31, 0x2f, 0x64, 0x65, 0x6e, 0x73, 0x65, 0x5f, 0x31, 0x2f, 0x42,
0x69, 0x61, 0x73, 0x41, 0x64, 0x64, 0x0, 0x0, 0x2, 0x0, 0x0, 0x0,
0x1, 0x0, 0x0, 0x0, 0x10, 0x0, 0x0, 0x0, 0x96, 0xfe, 0xff, 0xff,
0x0, 0x0, 0x0, 0x1, 0x10, 0x0, 0x0, 0x0, 0x10, 0x0, 0x0, 0x0,
0x7, 0x0, 0x0, 0x0, 0x28, 0x0, 0x0, 0x0, 0x1c, 0xfe, 0xff, 0xff,
0x1b, 0x0, 0x0, 0x0, 0x73, 0x65, 0x71, 0x75, 0x65, 0x6e, 0x74, 0x69,
0x61, 0x6c, 0x5f, 0x31, 0x2f, 0x64, 0x65, 0x6e, 0x73, 0x65, 0x5f, 0x31,
0x2f, 0x4d, 0x61, 0x74, 0x4d, 0x75, 0x6c, 0x0, 0x2, 0x0, 0x0, 0x0,
0x10, 0x0, 0x0, 0x0, 0xa, 0x0, 0x0, 0x0, 0xde, 0xfe, 0xff, 0xff,
0x0, 0x0, 0x0, 0x1, 0x10, 0x0, 0x0, 0x0, 0x10, 0x0, 0x0, 0x0,
0x6, 0x0, 0x0, 0x0, 0x38, 0x0, 0x0, 0x0, 0x64, 0xfe, 0xff, 0xff,
0x2b, 0x0, 0x0, 0x0, 0x73, 0x65, 0x71, 0x75, 0x65, 0x6e, 0x74, 0x69,
0x61, 0x6c, 0x5f, 0x31, 0x2f, 0x64, 0x65, 0x6e, 0x73, 0x65, 0x5f, 0x31,
0x2f, 0x42, 0x69, 0x61, 0x73, 0x41, 0x64, 0x64, 0x2f, 0x52, 0x65, 0x61,
0x64, 0x56, 0x61, 0x72, 0x69, 0x61, 0x62, 0x6c, 0x65, 0x4f, 0x70, 0x0,
0x1, 0x0, 0x0, 0x0, 0x10, 0x0, 0x0, 0x0, 0x32, 0xff, 0xff, 0xff,
0x0, 0x0, 0x0, 0x1, 0x10, 0x0, 0x0, 0x0, 0x10, 0x0, 0x0, 0x0,
0x5, 0x0, 0x0, 0x0, 0x3c, 0x0, 0x0, 0x0, 0xb8, 0xfe, 0xff, 0xff,
0x2d, 0x0, 0x0, 0x0, 0x73, 0x65, 0x71, 0x75, 0x65, 0x6e, 0x74, 0x69,
0x61, 0x6c, 0x5f, 0x31, 0x2f, 0x64, 0x65, 0x6e, 0x73, 0x65, 0x5f, 0x31,
0x5f, 0x32, 0x2f, 0x42, 0x69, 0x61, 0x73, 0x41, 0x64, 0x64, 0x2f, 0x52,
0x65, 0x61, 0x64, 0x56, 0x61, 0x72, 0x69, 0x61, 0x62, 0x6c, 0x65, 0x4f,
0x70, 0x0, 0x0, 0x0, 0x1, 0x0, 0x0, 0x0, 0x8, 0x0, 0x0, 0x0,
0x8a, 0xff, 0xff, 0xff, 0x0, 0x0, 0x0, 0x1, 0x10, 0x0, 0x0, 0x0,
0x10, 0x0, 0x0, 0x0, 0x4, 0x0, 0x0, 0x0, 0x1c, 0x0, 0x0, 0x0,
0x10, 0xff, 0xff, 0xff, 0xf, 0x0, 0x0, 0x0, 0x61, 0x72, 0x69, 0x74,
0x68, 0x2e, 0x63, 0x6f, 0x6e, 0x73, 0x74, 0x61, 0x6e, 0x74, 0x32, 0x0,
0x1, 0x0, 0x0, 0x0, 0x2, 0x0, 0x0, 0x0, 0xc2, 0xff, 0xff, 0xff,
0x0, 0x0, 0x0, 0x1, 0x10, 0x0, 0x0, 0x0, 0x10, 0x0, 0x0, 0x0,
0x3, 0x0, 0x0, 0x0, 0x1c, 0x0, 0x0, 0x0, 0x48, 0xff, 0xff, 0xff,
0xf, 0x0, 0x0, 0x0, 0x61, 0x72, 0x69, 0x74, 0x68, 0x2e, 0x63, 0x6f,
0x6e, 0x73, 0x74, 0x61, 0x6e, 0x74, 0x31, 0x0, 0x2, 0x0, 0x0, 0x0,
0x8, 0x0, 0x0, 0x0, 0x10, 0x0, 0x0, 0x0, 0x0, 0x0, 0x16, 0x0,
0x18, 0x0, 0x14, 0x0, 0x0, 0x0, 0x10, 0x0, 0xc, 0x0, 0x8, 0x0,
0x0, 0x0, 0x0, 0x0, 0x0, 0x0, 0x7, 0x0, 0x16, 0x0, 0x0, 0x0,
0x0, 0x0, 0x0, 0x1, 0x10, 0x0, 0x0, 0x0, 0x10, 0x0, 0x0, 0x0,
0x2, 0x0, 0x0, 0x0, 0x1c, 0x0, 0x0, 0x0, 0x9c, 0xff, 0xff, 0xff,
0xe, 0x0, 0x0, 0x0, 0x61, 0x72, 0x69, 0x74, 0x68, 0x2e, 0x63, 0x6f,
0x6e, 0x73, 0x74, 0x61, 0x6e, 0x74, 0x0, 0x0, 0x2, 0x0, 0x0, 0x0,
0x2, 0x0, 0x0, 0x0, 0x8, 0x0, 0x0, 0x0, 0x0, 0x0, 0x16, 0x0,
0x1c, 0x0, 0x18, 0x0, 0x0, 0x0, 0x14, 0x0, 0x10, 0x0, 0xc, 0x0,
0x0, 0x0, 0x0, 0x0, 0x8, 0x0, 0x7, 0x0, 0x16, 0x0, 0x0, 0x0,
0x0, 0x0, 0x0, 0x1, 0x14, 0x0, 0x0, 0x0, 0x20, 0x0, 0x0, 0x0,
0x20, 0x0, 0x0, 0x0, 0x1, 0x0, 0x0, 0x0, 0x3c, 0x0, 0x0, 0x0,
0x2, 0x0, 0x0, 0x0, 0xff, 0xff, 0xff, 0xff, 0xa, 0x0, 0x0, 0x0,
0x4, 0x0, 0x4, 0x0, 0x4, 0x0, 0x0, 0x0, 0x1e, 0x0, 0x0, 0x0,
0x73, 0x65, 0x72, 0x76, 0x69, 0x6e, 0x67, 0x5f, 0x64, 0x65, 0x66, 0x61,
0x75, 0x6c, 0x74, 0x5f, 0x6b, 0x65, 0x72, 0x61, 0x73, 0x5f, 0x74, 0x65,
0x6e, 0x73, 0x6f, 0x72, 0x3a, 0x30, 0x0, 0x0, 0x2, 0x0, 0x0, 0x0,
0x1, 0x0, 0x0, 0x0, 0xa, 0x0, 0x0, 0x0, 0x2, 0x0, 0x0, 0x0,
0x20, 0x0, 0x0, 0x0, 0x4, 0x0, 0x0, 0x0, 0xf4, 0xff, 0xff, 0xff,
0x19, 0x0, 0x0, 0x0, 0x0, 0x0, 0x0, 0x19, 0xc, 0x0, 0xc, 0x0,
0xb, 0x0, 0x0, 0x0, 0x0, 0x0, 0x4, 0x0, 0xc, 0x0, 0x0, 0x0,
0x9, 0x0, 0x0, 0x0, 0x0, 0x0, 0x0, 0x9,
};

const int dht_anomaly_model_tflite_len = 3440;

#endif
