#ifndef DHT_ANOMALY_MODEL_H_
#define DHT_ANOMALY_MODEL_H_

#include <stdint.h>

const unsigned int dht_anomaly_model_tflite_len = 5852;
const unsigned char dht_anomaly_model_tflite[] = {
  0x1c, 0x0, 0x0, 0x0, 0x54, 0x46, 0x4c, 0x33, 0x14, 0x0, 0x20, 0x0,
  0x1c, 0x0, 0x18, 0x0, 0x14, 0x0, 0x10, 0x0, 0xc, 0x0, 0x0, 0x0,
  0x8, 0x0, 0x4, 0x0, 0x14, 0x0, 0x0, 0x0, 0x1c, 0x0, 0x0, 0x0,
  0x98, 0x0, 0x0, 0x0, 0xf0, 0x0, 0x0, 0x0, 0x58, 0x10, 0x0, 0x0,
  0x68, 0x10, 0x0, 0x0, 0x78, 0x16, 0x0, 0x0, 0x3, 0x0, 0x0, 0x0,
  0x1, 0x0, 0x0, 0x0, 0x10, 0x0, 0x0, 0x0, 0x0, 0x0, 0xa, 0x0,
  0x10, 0x0, 0xc, 0x0, 0x8, 0x0, 0x4, 0x0, 0xa, 0x0, 0x0, 0x0,
  0xc, 0x0, 0x0, 0x0, 0x1c, 0x0, 0x0, 0x0, 0x3c, 0x0, 0x0, 0x0,
  0xf, 0x0, 0x0, 0x0, 0x73, 0x65, 0x72, 0x76, 0x69, 0x6e, 0x67, 0x5f,
  0x64, 0x65, 0x66, 0x61, 0x75, 0x6c, 0x74, 0x0, 0x1, 0x0, 0x0, 0x0,
  0x4, 0x0, 0x0, 0x0, 0x90, 0xff, 0xff, 0xff, 0xa, 0x0, 0x0, 0x0,
  0x4, 0x0, 0x0, 0x0, 0x8, 0x0, 0x0, 0x0, 0x6f, 0x75, 0x74, 0x70,
  0x75, 0x74, 0x5f, 0x30, 0x0, 0x0, 0x0, 0x0, 0x1, 0x0, 0x0, 0x0,
  0x4, 0x0, 0x0, 0x0, 0x8e, 0xef, 0xff, 0xff, 0x4, 0x0, 0x0, 0x0,
  0xf, 0x0, 0x0, 0x0, 0x6b, 0x65, 0x72, 0x61, 0x73, 0x5f, 0x74, 0x65,
  0x6e, 0x73, 0x6f, 0x72, 0x5f, 0x31, 0x32, 0x0, 0x2, 0x0, 0x0, 0x0,
  0x34, 0x0, 0x0, 0x0, 0x4, 0x0, 0x0, 0x0, 0xdc, 0xff, 0xff, 0xff,
  0xd, 0x0, 0x0, 0x0, 0x4, 0x0, 0x0, 0x0, 0x13, 0x0, 0x0, 0x0,
  0x43, 0x4f, 0x4e, 0x56, 0x45, 0x52, 0x53, 0x49, 0x4f, 0x4e, 0x5f, 0x4d,
  0x45, 0x54, 0x41, 0x44, 0x41, 0x54, 0x41, 0x0, 0x8, 0x0, 0xc, 0x0,
  0x8, 0x0, 0x4, 0x0, 0x8, 0x0, 0x0, 0x0, 0xc, 0x0, 0x0, 0x0,
  0x4, 0x0, 0x0, 0x0, 0x13, 0x0, 0x0, 0x0, 0x6d, 0x69, 0x6e, 0x5f,
  0x72, 0x75, 0x6e, 0x74, 0x69, 0x6d, 0x65, 0x5f, 0x76, 0x65, 0x72, 0x73,
  0x69, 0x6f, 0x6e, 0x0, 0xe, 0x0, 0x0, 0x0, 0x64, 0xf, 0x0, 0x0,
  0x5c, 0xf, 0x0, 0x0, 0xcc, 0xe, 0x0, 0x0, 0xbc, 0x6, 0x0, 0x0,
  0x6c, 0x6, 0x0, 0x0, 0x54, 0x6, 0x0, 0x0, 0xc4, 0x5, 0x0, 0x0,
  0xb4, 0x0, 0x0, 0x0, 0xac, 0x0, 0x0, 0x0, 0xa4, 0x0, 0x0, 0x0,
  0x9c, 0x0, 0x0, 0x0, 0x94, 0x0, 0x0, 0x0, 0x74, 0x0, 0x0, 0x0,
  0x4, 0x0, 0x0, 0x0, 0x42, 0xf0, 0xff, 0xff, 0x4, 0x0, 0x0, 0x0,
  0x60, 0x0, 0x0, 0x0, 0xc, 0x0, 0x0, 0x0, 0x8, 0x0, 0xe, 0x0,
  0x8, 0x0, 0x4, 0x0, 0x8, 0x0, 0x0, 0x0, 0x10, 0x0, 0x0, 0x0,
  0x28, 0x0, 0x0, 0x0, 0x0, 0x0, 0x6, 0x0, 0x8, 0x0, 0x4, 0x0,
  0x6, 0x0, 0x0, 0x0, 0x4, 0x0, 0x0, 0x0, 0x1, 0x0, 0x0, 0x0,
  0xea, 0x3, 0x0, 0x0, 0xc, 0x0, 0x18, 0x0, 0x14, 0x0, 0x10, 0x0,
  0xc, 0x0, 0x4, 0x0, 0xc, 0x0, 0x0, 0x0, 0x3f, 0x36, 0x36, 0x24,
  0x82, 0xd7, 0xd0, 0x4d, 0x2, 0x0, 0x0, 0x0, 0x2, 0x0, 0x0, 0x0,
  0x4, 0x0, 0x0, 0x0, 0x6, 0x0, 0x0, 0x0, 0x32, 0x2e, 0x31, 0x39,
  0x2e, 0x30, 0x0, 0x0, 0xae, 0xf0, 0xff, 0xff, 0x4, 0x0, 0x0, 0x0,
  0x10, 0x0, 0x0, 0x0, 0x31, 0x2e, 0x35, 0x2e, 0x30, 0x0, 0x0, 0x0,
  0x0, 0x0, 0x0, 0x0, 0x0, 0x0, 0x0, 0x0, 0x6c, 0xeb, 0xff, 0xff,
  0x70, 0xeb, 0xff, 0xff, 0x74, 0xeb, 0xff, 0xff, 0x78, 0xeb, 0xff, 0xff,
  0xda, 0xf0, 0xff, 0xff, 0x4, 0x0, 0x0, 0x0, 0x0, 0x5, 0x0, 0x0,
  0x2e, 0xd5, 0x85, 0xbe, 0xe1, 0xa3, 0x62, 0x3e, 0xab, 0x41, 0x33, 0xbe,
  0xf3, 0xeb, 0x1, 0xbe, 0xfd, 0x4e, 0x9c, 0x3e, 0x75, 0xd3, 0x9a, 0xbd,
  0x71, 0x25, 0xc6, 0xbe, 0x80, 0x0, 0x94, 0xbe, 0x52, 0xb5, 0x88, 0x3c,
  0x0, 0x6a, 0x38, 0x3e, 0x2a, 0x38, 0x75, 0xbe, 0x3a, 0x5f, 0x19, 0x3e,
  0x5, 0x11, 0x4d, 0xbe, 0xff, 0xc5, 0x77, 0xbe, 0xe0, 0x69, 0xe6, 0xbc,
  0x8, 0xbc, 0x65, 0x3d, 0x60, 0xb, 0x47, 0x3d, 0x7c, 0x49, 0xe8, 0xbd,
  0x97, 0xa7, 0xa6, 0x3e, 0xda, 0x49, 0x98, 0xbe, 0x1d, 0x9f, 0x77, 0xbe,
  0x64, 0x6c, 0x9b, 0xbe, 0x58, 0x4e, 0xec, 0xbd, 0xac, 0xbe, 0x93, 0x3d,
  0xec, 0x26, 0x69, 0xbe, 0x83, 0x24, 0x63, 0xbe, 0x4, 0x6a, 0xe9, 0xbd,
  0xde, 0x42, 0x7e, 0xbe, 0xfa, 0x3, 0x6e, 0x3e, 0xe7, 0x38, 0x86, 0xbe,
  0x15, 0x1e, 0x74, 0xbe, 0x2a, 0xf0, 0xf, 0xbd, 0x45, 0x7, 0xb, 0xbe,
  0x35, 0x68, 0x98, 0x3e, 0x9f, 0x6, 0x62, 0xbb, 0xd8, 0xb4, 0xad, 0x3c,
  0xe8, 0x93, 0x16, 0x3d, 0x8b, 0xad, 0x4e, 0xbe, 0x59, 0x41, 0x1, 0x3f,
  0x1f, 0xf4, 0x1, 0x3e, 0x16, 0x81, 0x81, 0x3e, 0xfd, 0xe0, 0x25, 0x3e,
  0x6d, 0x13, 0x35, 0xbc, 0xc3, 0x6e, 0x49, 0x3e, 0xcc, 0x6c, 0x84, 0xbe,
  0x84, 0x41, 0xc8, 0xbd, 0x22, 0xd1, 0xa5, 0xbd, 0x82, 0xcc, 0xb6, 0x3d,
  0x5d, 0x85, 0xdd, 0x3e, 0xb5, 0xd7, 0x55, 0xbe, 0x12, 0xae, 0x44, 0xbe,
  0xab, 0x20, 0xb5, 0xbe, 0xd6, 0x27, 0xa0, 0xbd, 0x2e, 0xab, 0x11, 0xbe,
  0xd, 0x63, 0x8b, 0x3d, 0x50, 0x7, 0x69, 0x3e, 0x35, 0x24, 0xc8, 0x3d,
  0xd1, 0x71, 0xd, 0x3e, 0xea, 0xe2, 0x45, 0x3c, 0x9b, 0xd6, 0xa7, 0x3e,
  0xdd, 0x29, 0x78, 0x3d, 0x26, 0x8b, 0x22, 0xbe, 0x9a, 0xbd, 0xd6, 0xbe,
  0x6c, 0x69, 0xac, 0xbe, 0xbc, 0xed, 0x85, 0x3e, 0xe0, 0xca, 0x55, 0xbe,
  0x9e, 0xde, 0xb3, 0xbe, 0xb, 0x9d, 0x51, 0x3e, 0xc9, 0x37, 0x31, 0x3e,
  0x38, 0x87, 0x43, 0x3e, 0xd4, 0x56, 0xab, 0x3d, 0xf, 0xe5, 0xe0, 0x3d,
  0x84, 0x11, 0x81, 0x3e, 0x1d, 0xbb, 0x16, 0x3e, 0x76, 0x7d, 0xd3, 0x3e,
  0xa2, 0x5f, 0x83, 0xbe, 0xb4, 0x50, 0x50, 0x3e, 0x46, 0x42, 0xfa, 0xbd,
  0x8f, 0xc5, 0x14, 0xbf, 0xb6, 0x16, 0xa8, 0x3d, 0xd7, 0x31, 0x75, 0x3e,
  0xf0, 0xf5, 0x44, 0xbe, 0x2a, 0xe7, 0x87, 0x3e, 0x9c, 0xa3, 0x8e, 0xbe,
  0xab, 0xc9, 0xbb, 0x3c, 0x83, 0xb8, 0x83, 0xbe, 0xb2, 0x40, 0x20, 0xbe,
  0x78, 0xa3, 0x6, 0x3e, 0x64, 0x4a, 0x9c, 0xbe, 0x5b, 0x81, 0x86, 0x3c,
  0xc9, 0x26, 0x6f, 0x3e, 0x15, 0xb8, 0x8b, 0xbe, 0x92, 0x2c, 0xf8, 0x3d,
  0x22, 0xbe, 0xc4, 0xbe, 0xe7, 0x8, 0x25, 0x3e, 0x6e, 0x68, 0x6f, 0xbe,
  0x14, 0x1a, 0x44, 0x3e, 0xd5, 0x4, 0xba, 0xbe, 0x70, 0xfa, 0x96, 0x3e,
  0x76, 0x2e, 0x7e, 0x3e, 0x38, 0xc6, 0x94, 0xbe, 0x9e, 0x69, 0x5, 0x3c,
  0x6b, 0xe3, 0x66, 0x3e, 0xb6, 0x3b, 0x9e, 0xbc, 0x4, 0xe0, 0x42, 0xbb,
  0xd7, 0x64, 0x98, 0xbd, 0x6c, 0xa, 0xdf, 0x3c, 0xcf, 0x78, 0x5b, 0x3d,
  0x18, 0x3b, 0xf2, 0xbd, 0x1d, 0xb, 0xda, 0xbd, 0x4d, 0x4b, 0x98, 0x3e,
  0xd, 0xa4, 0x3e, 0xbe, 0x93, 0x64, 0xe4, 0x3d, 0xa6, 0x75, 0x84, 0x3d,
  0x3b, 0xa, 0x15, 0x3e, 0x4d, 0x96, 0x62, 0xbd, 0x10, 0x91, 0x1b, 0x3e,
  0x4f, 0xa1, 0xa8, 0xbc, 0x65, 0x7d, 0xe2, 0xbe, 0x7, 0x3c, 0x5e, 0x3e,
  0x79, 0xd7, 0xb0, 0x3e, 0x58, 0xfd, 0x5d, 0xbe, 0x3, 0xf, 0x37, 0x3e,
  0xb0, 0x64, 0xd2, 0xbd, 0x8d, 0x8, 0x6a, 0xbe, 0x19, 0x4a, 0x60, 0xbc,
  0x8b, 0x85, 0x2b, 0x3e, 0x69, 0xd4, 0x36, 0x3e, 0x4d, 0x15, 0xf7, 0xbe,
  0x6, 0x5f, 0x86, 0x3e, 0x4e, 0x89, 0x5f, 0x3e, 0xe8, 0x72, 0xaa, 0x3d,
  0x47, 0x76, 0x9c, 0x3e, 0xe3, 0x99, 0x80, 0xbe, 0x7a, 0xf5, 0x59, 0xbe,
  0x28, 0x76, 0x1b, 0x3d, 0xd6, 0xad, 0x9a, 0xbe, 0x80, 0xfd, 0xc6, 0x3c,
  0x60, 0xfa, 0x8a, 0xbc, 0x0, 0xb2, 0x83, 0xba, 0x82, 0xc2, 0xe0, 0xbe,
  0x3b, 0xdb, 0xc4, 0xbe, 0xba, 0xb9, 0x45, 0x3d, 0x7e, 0xff, 0xa0, 0x3d,
  0x18, 0xcb, 0x2c, 0xbe, 0x7, 0xc0, 0x8d, 0x3e, 0xb7, 0x4f, 0xc4, 0x3d,
  0x2, 0x44, 0x9a, 0x3d, 0xad, 0x3f, 0xa7, 0x3e, 0x40, 0xe7, 0xc0, 0x3e,
  0x10, 0xfd, 0x3d, 0x3d, 0xb1, 0xd0, 0x50, 0xbe, 0xb5, 0x2a, 0xd8, 0x3d,
  0x1c, 0x77, 0x8c, 0x3e, 0x87, 0xcf, 0x64, 0x3d, 0xa3, 0x56, 0x43, 0x3e,
  0xc5, 0x65, 0x2, 0x3d, 0x71, 0x41, 0x7e, 0xbd, 0xcf, 0x1a, 0x0, 0xbf,
  0xf2, 0x64, 0x7a, 0x3d, 0x41, 0xf1, 0x6e, 0xbe, 0x10, 0xd0, 0x4a, 0xbe,
  0x88, 0xfd, 0x3f, 0xbd, 0x36, 0x76, 0xa6, 0x3e, 0xa1, 0xb3, 0xf4, 0xbc,
  0x58, 0x8d, 0x3a, 0xbe, 0xbd, 0x57, 0x35, 0xbd, 0xff, 0xb9, 0x67, 0xbe,
  0xca, 0x69, 0x41, 0xbe, 0xa1, 0x26, 0x16, 0x3e, 0xce, 0x61, 0x5a, 0x3e,
  0x5c, 0x38, 0x95, 0xbe, 0xac, 0x73, 0xc8, 0xbd, 0xea, 0x33, 0x7e, 0xbe,
  0x2c, 0xbb, 0xa7, 0xbd, 0xea, 0xea, 0x9d, 0xbe, 0x58, 0x48, 0x94, 0x3d,
  0x5f, 0xea, 0x9a, 0xbe, 0xa8, 0x6c, 0xdd, 0x3d, 0x28, 0x39, 0x3e, 0xbe,
  0x32, 0xa6, 0x4e, 0xbe, 0xcf, 0x84, 0xe9, 0xbd, 0x9f, 0x22, 0xb9, 0xbe,
  0xee, 0xcc, 0xc1, 0xbc, 0xf, 0x89, 0x17, 0xbe, 0xdf, 0x5b, 0x90, 0x3e,
  0xf2, 0x3b, 0x18, 0xbc, 0x2f, 0x90, 0xb9, 0xbe, 0xc0, 0x8e, 0x86, 0xbe,
  0xa9, 0xad, 0x3b, 0x3e, 0x20, 0xda, 0xcb, 0x3d, 0xf8, 0x3, 0x51, 0xbd,
  0x4f, 0x66, 0x82, 0x3e, 0xd8, 0x45, 0x44, 0xbd, 0x99, 0x49, 0x66, 0xbe,
  0x96, 0xbf, 0x17, 0x3e, 0x94, 0x22, 0xd1, 0xbd, 0x84, 0x5b, 0xc1, 0xbe,
  0x10, 0xb9, 0x9e, 0xbd, 0xf2, 0x83, 0x67, 0xbe, 0xe8, 0xbd, 0x82, 0x3e,
  0x34, 0xc4, 0xbc, 0x3e, 0x46, 0x36, 0xc6, 0x3e, 0xc5, 0x5, 0x9e, 0xbc,
  0x1b, 0xb9, 0x96, 0x3e, 0x2d, 0xa, 0xa9, 0x3e, 0xcf, 0x96, 0xc0, 0x3e,
  0xb1, 0x1b, 0x9e, 0xbe, 0x12, 0xe8, 0x15, 0xbf, 0xde, 0x2c, 0xde, 0xbe,
  0xea, 0xa, 0xbd, 0xbe, 0x0, 0xcb, 0x86, 0xbc, 0xb, 0xb, 0x5d, 0xbe,
  0xd0, 0xac, 0xb4, 0x3c, 0x40, 0x11, 0x2b, 0xbc, 0x50, 0x86, 0xb1, 0xbd,
  0xf5, 0x1f, 0x86, 0x3e, 0x60, 0x99, 0x11, 0xbc, 0x1d, 0x65, 0xbc, 0x3e,
  0xc4, 0x71, 0xb5, 0xbe, 0x64, 0xd7, 0x97, 0xbe, 0x32, 0xad, 0x6e, 0x3e,
  0xa8, 0x86, 0xec, 0xbd, 0x20, 0x28, 0x9e, 0xbd, 0x1f, 0x83, 0x70, 0xbe,
  0x5e, 0x78, 0x3f, 0xbe, 0xb6, 0x73, 0x93, 0xbe, 0x2e, 0x2a, 0x53, 0xbe,
  0x0, 0x18, 0xee, 0xbb, 0xd0, 0xfa, 0xaf, 0xbd, 0xe4, 0x4c, 0x45, 0x3e,
  0x74, 0xfc, 0x3f, 0x3b, 0x92, 0x3f, 0x4c, 0x3e, 0xa, 0x8b, 0x8b, 0xbe,
  0xfc, 0xa3, 0x1, 0x3d, 0x8c, 0xe9, 0x8d, 0xbc, 0x4d, 0xc0, 0xd7, 0x3d,
  0x64, 0x7c, 0xcc, 0x3d, 0x46, 0xb1, 0x85, 0x3d, 0x82, 0xbe, 0xc0, 0xbe,
  0x2b, 0x8f, 0x93, 0x3d, 0x27, 0xee, 0xa7, 0x3e, 0x8a, 0x6c, 0x93, 0xbd,
  0xe6, 0x9, 0xcb, 0xbd, 0xdd, 0x6d, 0x25, 0x3d, 0x97, 0xf7, 0xa4, 0x3e,
  0x11, 0xe4, 0xd9, 0xbe, 0xa7, 0xa2, 0xeb, 0xbd, 0x7d, 0xae, 0x96, 0x3e,
  0x9e, 0x57, 0x17, 0x3e, 0x7c, 0x77, 0x9e, 0xbe, 0x8a, 0x1d, 0xc, 0xbe,
  0x50, 0x21, 0x8a, 0x3e, 0x8c, 0x62, 0x27, 0xbd, 0x7b, 0xf4, 0x3d, 0xbd,
  0x1b, 0xcc, 0x2b, 0xbe, 0xaf, 0x3a, 0xa8, 0xbe, 0xd0, 0xcd, 0x9f, 0xbe,
  0xf1, 0xc6, 0x16, 0xbd, 0xc4, 0x9, 0x7e, 0x3e, 0xbc, 0xb3, 0x84, 0x3e,
  0x0, 0x43, 0x52, 0x3e, 0x9f, 0x8a, 0xfe, 0xbd, 0xf1, 0xa6, 0xfe, 0xbd,
  0x8b, 0x24, 0x92, 0xba, 0x2, 0xe3, 0x37, 0xbe, 0x83, 0xc4, 0x57, 0x3e,
  0xe2, 0xef, 0xf, 0xbe, 0x3c, 0xbf, 0x81, 0x3e, 0x5, 0xfd, 0xf7, 0x3d,
  0x54, 0x44, 0x2d, 0x3e, 0xa1, 0xc2, 0x5e, 0x3e, 0x81, 0x63, 0xdb, 0x3d,
  0x41, 0xba, 0x9, 0xbe, 0xe9, 0x32, 0x8f, 0x3d, 0x6e, 0x6c, 0x8e, 0x3e,
  0x36, 0x64, 0x6d, 0xbe, 0x6d, 0xc7, 0x9c, 0xbe, 0xc6, 0xec, 0x8d, 0xbe,
  0x86, 0xed, 0x5b, 0x3e, 0xd, 0x1a, 0x3d, 0xbe, 0xcd, 0x36, 0x4c, 0x3e,
  0xc5, 0x41, 0x4d, 0xbc, 0xfa, 0x7e, 0x6, 0x3e, 0x93, 0x6a, 0x70, 0xbe,
  0x1f, 0x3b, 0x93, 0x3e, 0x9f, 0x1d, 0x9f, 0xbe, 0x2c, 0x13, 0x95, 0xbe,
  0x6f, 0xec, 0x6f, 0xbe, 0xe1, 0xe5, 0x7e, 0xbd, 0x21, 0x41, 0x99, 0x3e,
  0xc3, 0xa4, 0x61, 0x3e, 0x11, 0x70, 0x55, 0xbe, 0x40, 0x8a, 0x4f, 0x3e,
  0xcd, 0xa5, 0x2e, 0x3c, 0xe8, 0xb3, 0x9c, 0x3d, 0x3, 0xed, 0xa6, 0xbe,
  0xb5, 0x5c, 0xc0, 0xbe, 0xdf, 0xdc, 0x20, 0x3f, 0x68, 0x3e, 0xc6, 0xbd,
  0xc, 0xa2, 0x3b, 0xbe, 0x3a, 0x13, 0xa7, 0x3e, 0xa0, 0x6b, 0x16, 0xbe,
  0x74, 0x5b, 0x3a, 0xbe, 0xdc, 0x15, 0x9a, 0x3d, 0xe6, 0x49, 0x40, 0xbe,
  0xe5, 0x92, 0x84, 0x3d, 0x26, 0x7e, 0xe4, 0xbd, 0x6e, 0xf6, 0x41, 0xbd,
  0x80, 0xe4, 0x11, 0x3e, 0x61, 0x91, 0xfe, 0xbd, 0x9b, 0xd0, 0x91, 0x3e,
  0xd9, 0x9f, 0xb7, 0xbe, 0x7, 0x6f, 0x8a, 0x3e, 0x75, 0x86, 0x8b, 0x3e,
  0x81, 0xa7, 0x9d, 0x3e, 0x44, 0xd6, 0xa4, 0x3e, 0xc1, 0xc0, 0xa8, 0x3d,
  0xf6, 0x97, 0x36, 0xbf, 0x23, 0xed, 0x35, 0x3e, 0xe6, 0xf5, 0xff, 0xff,
  0x4, 0x0, 0x0, 0x0, 0x80, 0x0, 0x0, 0x0, 0x67, 0xc5, 0x1d, 0xbd,
  0x0, 0x0, 0x0, 0x0, 0x0, 0x0, 0x0, 0x0, 0x40, 0x31, 0xfb, 0x3e,
  0xcf, 0x65, 0x24, 0x3f, 0x5d, 0x66, 0xa4, 0xbe, 0x18, 0xa9, 0x94, 0xbd,
  0x4e, 0xd0, 0xc8, 0xbe, 0xc2, 0x74, 0x6, 0x3b, 0x7, 0x5d, 0xc2, 0x3d,
  0xb3, 0x4, 0x75, 0xbc, 0xe7, 0xf, 0x5c, 0x3f, 0x70, 0xd5, 0x4, 0xbf,
  0x0, 0x0, 0x0, 0x0, 0xa3, 0x51, 0xe9, 0xbe, 0xdc, 0x48, 0x61, 0xbf,
  0xeb, 0xf0, 0xc7, 0xbc, 0x0, 0x0, 0x0, 0x0, 0x2f, 0xc2, 0xe2, 0xbd,
  0x0, 0x0, 0x0, 0x0, 0x91, 0xdc, 0x78, 0xbe, 0x0, 0x0, 0x0, 0x0,
  0x0, 0x0, 0x0, 0x0, 0x93, 0x7b, 0xb7, 0xbe, 0xb1, 0xc3, 0xaf, 0x3e,
  0xc7, 0x6b, 0xb0, 0x3b, 0xdb, 0x5b, 0x3b, 0xbf, 0x4c, 0x98, 0x55, 0x3f,
  0x71, 0x3d, 0xc6, 0xbd, 0x1d, 0x91, 0xcc, 0x3d, 0x4c, 0x31, 0x1a, 0xbe,
  0x7a, 0xe0, 0x20, 0xbe, 0x72, 0xf6, 0xff, 0xff, 0x4, 0x0, 0x0, 0x0,
  0x8, 0x0, 0x0, 0x0, 0x6f, 0xbb, 0x60, 0x3f, 0x66, 0xbb, 0x60, 0xbf,
  0x86, 0xf6, 0xff, 0xff, 0x4, 0x0, 0x0, 0x0, 0x40, 0x0, 0x0, 0x0,
  0xac, 0x20, 0x66, 0xbd, 0x8b, 0x22, 0x95, 0xbc, 0x73, 0x9c, 0x4c, 0xbd,
  0xe7, 0x3a, 0x56, 0xbf, 0x94, 0xa8, 0x3e, 0x3f, 0x8, 0x59, 0xcb, 0xba,
  0x7, 0xa3, 0x59, 0x3f, 0x11, 0xcf, 0x67, 0xbf, 0x2d, 0xd6, 0x45, 0xbc,
  0x40, 0xb4, 0x54, 0xbf, 0x1b, 0x96, 0x3e, 0xbf, 0x24, 0x11, 0x60, 0xbd,
  0x9d, 0xd0, 0x61, 0xbf, 0x8e, 0x8a, 0x5d, 0xbf, 0x72, 0xdc, 0x3b, 0x3f,
  0x7c, 0x1f, 0x68, 0x3f, 0xd2, 0xf6, 0xff, 0xff, 0x4, 0x0, 0x0, 0x0,
  0x0, 0x8, 0x0, 0x0, 0x8c, 0xc, 0x48, 0x3e, 0x3a, 0x70, 0x7d, 0xbe,
  0xd2, 0xa9, 0x52, 0x3e, 0xf, 0x9d, 0xf7, 0x3d, 0xee, 0x36, 0xe, 0x3e,
  0xd, 0xa8, 0x77, 0xbe, 0xf4, 0x18, 0x56, 0x3e, 0xad, 0x87, 0x2b, 0x3e,
  0x7d, 0x94, 0xdf, 0x3d, 0xa0, 0x9f, 0xbf, 0x3d, 0x53, 0xa0, 0x9, 0xbd,
  0x97, 0xf0, 0x72, 0x3e, 0x92, 0x4a, 0x5, 0xbd, 0x80, 0x30, 0xbf, 0x3b,
  0x39, 0xfd, 0xcc, 0xbe, 0x1e, 0xa8, 0x8e, 0xbe, 0x0, 0xcc, 0xb8, 0xbd,
  0xbd, 0x15, 0xad, 0x3e, 0x2e, 0x8b, 0xd8, 0xbd, 0x91, 0xee, 0x3c, 0xbe,
  0xdd, 0xd7, 0x16, 0xbe, 0x4c, 0x83, 0xa2, 0xbd, 0x68, 0x2e, 0x42, 0xbd,
  0x35, 0xbe, 0x81, 0xbd, 0xbd, 0x76, 0x47, 0x3d, 0xc2, 0x21, 0x3, 0xbd,
  0xae, 0xd9, 0x6e, 0xbe, 0x1d, 0x83, 0x8f, 0x3e, 0x1b, 0x75, 0x1d, 0x3c,
  0x8, 0xd8, 0xb2, 0xbe, 0x7d, 0x28, 0x4a, 0x3e, 0xc7, 0x2e, 0xab, 0x3c,
  0x82, 0xb5, 0x2c, 0xbe, 0x7f, 0x2a, 0xa9, 0x3e, 0xc2, 0xea, 0x81, 0xbe,
  0xfa, 0x95, 0x44, 0xbe, 0x49, 0x38, 0xa8, 0xbe, 0x86, 0x33, 0x53, 0xbe,
  0x6d, 0x21, 0xac, 0xbe, 0xbe, 0xf5, 0xc, 0xbe, 0x32, 0xa4, 0x61, 0x3e,
  0xc0, 0xa4, 0x5f, 0xbd, 0xa3, 0x37, 0xab, 0x3e, 0x7, 0x26, 0xd3, 0x3d,
  0x13, 0x8f, 0xe2, 0x3d, 0xbc, 0xab, 0x8b, 0x3d, 0xaa, 0x3d, 0x19, 0xbe,
  0x4e, 0x1c, 0xa4, 0xbd, 0x44, 0xa4, 0xd7, 0xbd, 0x5a, 0x83, 0x38, 0x3e,
  0x66, 0x4, 0x13, 0xbe, 0xd7, 0x1e, 0x47, 0xbe, 0x6d, 0xf0, 0x8d, 0xbe,
  0x23, 0x92, 0x9a, 0x3e, 0x43, 0x6e, 0xb4, 0x3e, 0x84, 0x2d, 0xa2, 0xbd,
  0xde, 0x3b, 0x54, 0x3e, 0x78, 0x58, 0x5, 0xbd, 0xe8, 0x74, 0x36, 0x3d,
  0x5a, 0x30, 0xad, 0xbe, 0x74, 0xe1, 0x97, 0x3d, 0x89, 0x58, 0x42, 0x3c,
  0x98, 0xc6, 0x9c, 0xbe, 0x5c, 0xdb, 0xeb, 0x3d, 0x5c, 0xed, 0x84, 0xbe,
  0x5f, 0x7a, 0xb1, 0x3e, 0x3a, 0x7b, 0x32, 0x3e, 0xe4, 0x79, 0xc, 0xbe,
  0xdf, 0xd, 0x3f, 0xbe, 0xd4, 0x25, 0x96, 0xbe, 0x73, 0x45, 0x21, 0xbe,
  0x4d, 0x7, 0xa0, 0xbd, 0x10, 0xb2, 0x4, 0xbe, 0x32, 0xcb, 0x3e, 0x3e,
  0x1c, 0x99, 0x82, 0x3d, 0x26, 0xfc, 0x1b, 0xbe, 0xe4, 0x7c, 0x83, 0xbe,
  0xb, 0xb5, 0x1b, 0xbe, 0x1f, 0x95, 0x26, 0xbe, 0x82, 0xcd, 0x2e, 0x3e,
  0x16, 0x1c, 0xa8, 0xbe, 0x3c, 0x1b, 0xa8, 0xbe, 0x2b, 0xd1, 0xf6, 0xbd,
  0x5d, 0x93, 0x85, 0xbe, 0xd9, 0xc0, 0xd9, 0xbd, 0xd4, 0x6e, 0x8a, 0xbd,
  0x50, 0xe4, 0x5c, 0xbd, 0xb, 0xaa, 0x8f, 0x3e, 0x8c, 0x72, 0xcc, 0x3b,
  0xd3, 0xf1, 0x21, 0xbe, 0xec, 0x4b, 0xc9, 0x3d, 0xd3, 0xa4, 0xa2, 0xbe,
  0x9b, 0x34, 0xb2, 0x3d, 0xcc, 0xca, 0x90, 0xbd, 0x4c, 0xc4, 0xdb, 0x3d,
  0x2, 0x89, 0x26, 0x3e, 0xd4, 0x38, 0x16, 0xbe, 0xd1, 0x3, 0x9b, 0x3e,
  0x40, 0x9b, 0x34, 0x3d, 0xb7, 0xd2, 0xb1, 0xbe, 0x4c, 0x15, 0xd7, 0xbe,
  0xdb, 0xfe, 0x22, 0x3c, 0x12, 0xc0, 0x50, 0x3e, 0xa2, 0xcc, 0x15, 0x3f,
  0xb0, 0xd2, 0x64, 0x3e, 0xec, 0x54, 0x92, 0xbd, 0x5c, 0x2a, 0x1f, 0xbe,
  0xb, 0xa8, 0x86, 0x3e, 0xa6, 0x62, 0xf7, 0x3e, 0xfc, 0xba, 0x3, 0x3e,
  0x6b, 0xb6, 0x5, 0x3d, 0xd1, 0x68, 0x7c, 0x3e, 0xdc, 0x5b, 0xe6, 0xbd,
  0xd6, 0x2c, 0xf, 0x3e, 0xa5, 0x4d, 0xc3, 0xbd, 0x39, 0xc2, 0x8f, 0x3e,
  0xf3, 0x1c, 0x13, 0x3e, 0x13, 0xc0, 0xa3, 0x3e, 0x3f, 0x2, 0xc, 0xbe,
  0x31, 0xe7, 0x19, 0x3e, 0xe, 0xf, 0x88, 0xbe, 0x6a, 0xd1, 0xcb, 0x3d,
  0xfb, 0x7b, 0xa2, 0x3d, 0xdf, 0xa, 0x22, 0x3d, 0xf7, 0x1b, 0x2b, 0xbe,
  0xa0, 0x22, 0x81, 0xbe, 0xfe, 0x74, 0x1f, 0x3e, 0xe6, 0xc0, 0x32, 0x3e,
  0x65, 0x62, 0x8b, 0xbe, 0xf0, 0x2, 0xbf, 0xbc, 0xdd, 0x58, 0x85, 0x3e,
  0xfa, 0x18, 0x4, 0xbe, 0x90, 0x6, 0xc8, 0x3d, 0x3, 0x69, 0x56, 0xbc,
  0x17, 0xcb, 0xf3, 0xb9, 0x49, 0xf1, 0xbd, 0x3d, 0x5d, 0x6c, 0x5d, 0x3e,
  0x52, 0x7b, 0x99, 0x3d, 0x0, 0x17, 0x16, 0xbe, 0x70, 0xc2, 0x57, 0xbe,
  0x5d, 0xb9, 0x8e, 0xbd, 0x8a, 0xf7, 0x41, 0x3e, 0xdd, 0x5b, 0xc7, 0x3c,
  0x47, 0x92, 0x16, 0xbc, 0xed, 0xd7, 0xc2, 0xbe, 0x8a, 0x54, 0x20, 0x3e,
  0x83, 0x33, 0x5b, 0x3e, 0x5a, 0x4b, 0x63, 0x3e, 0x53, 0x9, 0xf5, 0x3d,
  0x56, 0x17, 0x73, 0x3e, 0x12, 0xfb, 0x30, 0x3e, 0xf6, 0x8c, 0x2f, 0x3d,
  0xbe, 0x1e, 0xe3, 0xbd, 0x42, 0xd0, 0xaf, 0xbc, 0x2c, 0xfd, 0x16, 0x3e,
  0xc0, 0x4e, 0xc2, 0xbd, 0xb4, 0x3b, 0xe6, 0xbe, 0x47, 0x2a, 0xe9, 0xbc,
  0xdc, 0x1e, 0xb8, 0xbd, 0xf5, 0x86, 0x2f, 0xbd, 0x8d, 0x6f, 0x96, 0x3c,
  0x3c, 0x92, 0xe1, 0x3d, 0x1c, 0xd5, 0xb0, 0xbe, 0x2a, 0xc3, 0x96, 0x3e,
  0xad, 0x90, 0x5b, 0xbe, 0xf8, 0x72, 0x5b, 0xbe, 0x7, 0xe5, 0x82, 0x3e,
  0x29, 0x83, 0x55, 0xbe, 0x4f, 0x10, 0xa8, 0x3e, 0x4c, 0x17, 0x97, 0xbe,
  0x82, 0x5a, 0x42, 0xbe, 0x65, 0x44, 0x9e, 0x3e, 0xb7, 0x76, 0xa4, 0x3e,
  0xf2, 0x67, 0x8f, 0xbe, 0x6b, 0x87, 0x5f, 0x3e, 0xe5, 0xf7, 0x5, 0x3d,
  0xd0, 0x3c, 0xcb, 0x3d, 0x3a, 0xb6, 0x58, 0xbe, 0x5d, 0x68, 0xb3, 0xbe,
  0x62, 0x13, 0x1f, 0xbe, 0xaa, 0x80, 0x2e, 0xbe, 0x26, 0x5c, 0x7f, 0x3e,
  0x81, 0x12, 0x93, 0x3e, 0x10, 0x64, 0xd8, 0x3d, 0x47, 0x75, 0x11, 0x3d,
  0x35, 0xfa, 0x5, 0x3e, 0x79, 0x2e, 0xb8, 0xbe, 0x6e, 0x11, 0x51, 0xbe,
  0x93, 0xde, 0x2f, 0x3e, 0x33, 0x67, 0x95, 0x3e, 0x5e, 0x1, 0xfd, 0x3b,
  0x37, 0x8f, 0x96, 0xbe, 0xc, 0x77, 0x56, 0xbd, 0xd4, 0x2a, 0xe, 0xbe,
  0x8e, 0x9d, 0x6, 0xbe, 0x57, 0x3d, 0x5c, 0x3d, 0x6b, 0x4c, 0x1c, 0x3e,
  0x47, 0x7f, 0x5f, 0xbd, 0x3a, 0x95, 0x26, 0xbc, 0xbb, 0x86, 0x57, 0xbc,
  0x4f, 0x88, 0x23, 0x3e, 0x20, 0x55, 0x61, 0x3d, 0xc6, 0x4a, 0xc5, 0x3a,
  0xb, 0x4b, 0x91, 0x3e, 0x1e, 0x2a, 0xbb, 0xbe, 0x3c, 0xed, 0x13, 0x3e,
  0xb9, 0x63, 0x3f, 0xbe, 0xdd, 0x9d, 0x97, 0x3d, 0xbb, 0xa8, 0x25, 0x3e,
  0xa0, 0x27, 0xc4, 0xbd, 0x6d, 0xc7, 0xa7, 0xbe, 0xf1, 0xce, 0xa6, 0xbe,
  0x5b, 0xb0, 0xa5, 0x3e, 0x80, 0x12, 0x87, 0xbd, 0x42, 0xab, 0x50, 0x3e,
  0xb5, 0xac, 0xed, 0xbd, 0x6, 0xae, 0x5f, 0x3e, 0x7e, 0x97, 0x88, 0xbe,
  0x10, 0x8b, 0x2c, 0xbe, 0x4e, 0x2c, 0xec, 0xbc, 0x7, 0x6a, 0x51, 0xbd,
  0x49, 0x15, 0xfa, 0x3d, 0xf4, 0xc, 0x65, 0x3e, 0x3, 0x28, 0x6d, 0x3e,
  0xd8, 0xaa, 0x14, 0x3e, 0x50, 0xa5, 0xe8, 0x3c, 0xda, 0xfe, 0x49, 0xbe,
  0x22, 0xf6, 0x80, 0x3e, 0x3, 0x65, 0xd6, 0xbd, 0x79, 0xbe, 0x62, 0x3e,
  0x88, 0x99, 0xa1, 0xbe, 0x6e, 0x3d, 0xb5, 0xbe, 0x84, 0x78, 0xf8, 0x3d,
  0x5c, 0x1c, 0x32, 0x3e, 0xee, 0xf7, 0xec, 0x3d, 0xc6, 0xaf, 0xd1, 0xbe,
  0xbb, 0x7a, 0x88, 0x3d, 0xde, 0xb2, 0x51, 0x3e, 0x3b, 0x62, 0xb7, 0xbd,
  0x5, 0x1e, 0x3, 0xbf, 0xba, 0x13, 0x26, 0x3d, 0x42, 0x5a, 0x10, 0x3e,
  0x22, 0x9e, 0x87, 0xbe, 0xd5, 0xaf, 0x62, 0xbe, 0x43, 0xb, 0xe8, 0xbe,
  0x50, 0x94, 0xe2, 0xbc, 0x36, 0xcf, 0x16, 0x3e, 0xc8, 0x5e, 0x1, 0xbe,
  0x3f, 0xe2, 0xba, 0x3d, 0x5e, 0x8c, 0x9b, 0x3e, 0x5a, 0x31, 0xe4, 0x3e,
  0x3b, 0xf5, 0xd9, 0x3c, 0xa0, 0xba, 0x4, 0x3d, 0x9e, 0xae, 0x1, 0x3f,
  0xcf, 0x18, 0x30, 0x3e, 0xa6, 0x8a, 0xbe, 0x3c, 0xed, 0x4f, 0x80, 0x3e,
  0x69, 0xd6, 0x6, 0xbe, 0xa2, 0x8a, 0x75, 0xbe, 0xb3, 0xc6, 0x85, 0xbe,
  0xed, 0x60, 0x5a, 0x3e, 0x4c, 0x87, 0x93, 0x3e, 0x8a, 0x6, 0x8f, 0xbe,
  0x2d, 0xd3, 0xa7, 0xbe, 0xbd, 0x64, 0x2d, 0xbe, 0xca, 0xa6, 0x7a, 0xbe,
  0x30, 0xc, 0x96, 0xbc, 0xca, 0xdc, 0xb3, 0xbe, 0x34, 0x9, 0x63, 0xbe,
  0x40, 0x53, 0x3b, 0xbc, 0xea, 0x4d, 0x3, 0x3e, 0x63, 0x1e, 0x4e, 0xbd,
  0xcb, 0xf7, 0xa5, 0x3e, 0x84, 0xad, 0xb3, 0xbe, 0xf8, 0x1d, 0x50, 0xbe,
  0x9c, 0x4e, 0xde, 0x3d, 0x41, 0x2f, 0xb1, 0xbc, 0x80, 0x1d, 0x16, 0xbc,
  0x42, 0x48, 0x3, 0x3e, 0x7b, 0xf2, 0xe5, 0xbd, 0x31, 0x87, 0xa3, 0x3c,
  0x86, 0x48, 0x2, 0xbe, 0x5b, 0xf8, 0x9a, 0xbe, 0x8d, 0x1f, 0x2a, 0xbe,
  0xbe, 0xfa, 0xc1, 0x3d, 0xed, 0xae, 0xe8, 0x3d, 0x7c, 0xc2, 0xbc, 0xbd,
  0xfb, 0xfa, 0x7c, 0xbe, 0x67, 0xd8, 0x1a, 0x3d, 0x8, 0xcb, 0xb8, 0x3d,
  0x48, 0x3b, 0x63, 0xbd, 0x3, 0x71, 0x6d, 0xbe, 0xf0, 0xe6, 0xc6, 0x3e,
  0xea, 0x84, 0x52, 0xbe, 0x66, 0x8e, 0x73, 0xbe, 0x7d, 0x1c, 0xc3, 0x3c,
  0x3a, 0xc4, 0x6, 0x3e, 0x9e, 0x88, 0x4a, 0xbe, 0xe9, 0xf1, 0x57, 0xbe,
  0x33, 0xd7, 0x72, 0xbe, 0x44, 0x2b, 0x94, 0xbe, 0x8a, 0x3a, 0x13, 0x3e,
  0x51, 0xdd, 0x89, 0xbe, 0xf8, 0x51, 0x20, 0x3e, 0xb3, 0xf, 0x8f, 0xbe,
  0x48, 0xf4, 0x1c, 0xbd, 0xf9, 0x95, 0x90, 0x3b, 0x70, 0x6b, 0x44, 0xbd,
  0x18, 0xe2, 0xac, 0x3e, 0x40, 0x38, 0xd7, 0x3d, 0xaf, 0x43, 0x9d, 0x3e,
  0x68, 0xc9, 0x81, 0x3e, 0x8a, 0x79, 0xe5, 0x3d, 0x68, 0xff, 0x64, 0xbd,
  0xee, 0x8e, 0xad, 0xbe, 0x98, 0xec, 0x78, 0xbe, 0x1e, 0x52, 0x6d, 0xbc,
  0xb3, 0xbc, 0x8d, 0xbd, 0x50, 0xa8, 0x27, 0xbe, 0xb3, 0x4e, 0x25, 0x3e,
  0xf0, 0xa4, 0x67, 0x3e, 0xf8, 0x1, 0x21, 0x3d, 0xae, 0x2c, 0x6b, 0x3e,
  0xa4, 0xfb, 0xd0, 0x3e, 0xd0, 0x29, 0xc5, 0xbd, 0x75, 0x37, 0x9a, 0x3c,
  0x3c, 0xe, 0x3, 0xbe, 0x18, 0x3c, 0xd, 0xbe, 0xc9, 0x3f, 0xac, 0x3d,
  0x5b, 0xd1, 0xde, 0xbc, 0xe9, 0x2f, 0x9f, 0x3e, 0x90, 0x83, 0x85, 0xbe,
  0x2c, 0x63, 0xe0, 0xbe, 0xb1, 0xbb, 0x70, 0xbe, 0xf0, 0x4d, 0xaf, 0x3e,
  0xe2, 0xc3, 0xfe, 0x3c, 0x28, 0x8a, 0x14, 0x3e, 0x2b, 0x90, 0xa7, 0xbe,
  0x16, 0x16, 0xc, 0x3e, 0x1b, 0x13, 0x50, 0xbe, 0x68, 0xb1, 0x86, 0xbe,
  0xe6, 0x82, 0x21, 0xbe, 0x76, 0xc, 0x57, 0x3e, 0x23, 0xa5, 0xe0, 0x3d,
  0x10, 0x62, 0x81, 0x3e, 0xe4, 0x67, 0x5f, 0xbe, 0x5b, 0xbd, 0xe5, 0x3d,
  0xb8, 0x8, 0x94, 0xbe, 0xca, 0xc8, 0x47, 0xbe, 0x3c, 0x8f, 0xed, 0x3d,
  0x33, 0xe9, 0x81, 0x3e, 0xdd, 0xe9, 0x61, 0xbe, 0x56, 0x9d, 0x4e, 0x3e,
  0x20, 0x44, 0x12, 0xbd, 0x38, 0xb, 0x45, 0xbd, 0x99, 0x8d, 0x4, 0x3e,
  0xce, 0x82, 0x82, 0xbe, 0xe0, 0x72, 0x9b, 0xbe, 0x1, 0xdf, 0x5a, 0xbe,
  0xe3, 0x87, 0x41, 0x3d, 0x96, 0x49, 0x2d, 0xbe, 0x61, 0x5a, 0xba, 0x3c,
  0xaf, 0xe9, 0x90, 0x3e, 0x96, 0x18, 0x73, 0x3e, 0x94, 0x66, 0x32, 0xbe,
  0x9e, 0x1b, 0x56, 0x3e, 0xaf, 0x16, 0xd8, 0x3d, 0x7a, 0x96, 0xb0, 0x3d,
  0xf2, 0x7, 0x24, 0x3e, 0x10, 0xc5, 0x37, 0xbd, 0xba, 0x8e, 0xaf, 0xbc,
  0x76, 0xb3, 0x1e, 0x3e, 0xcc, 0x16, 0x98, 0xbe, 0x0, 0xcb, 0x38, 0x3b,
  0xb8, 0xb9, 0x8c, 0xbd, 0x64, 0x47, 0x4b, 0xbe, 0xb9, 0x32, 0x61, 0xbe,
  0x96, 0x52, 0xe3, 0x3d, 0xb6, 0x82, 0xce, 0xbc, 0x8f, 0x4a, 0xd2, 0x3d,
  0x43, 0xf7, 0xcf, 0xbd, 0x5f, 0x40, 0x38, 0x3e, 0xac, 0x2d, 0x5b, 0xbe,
  0xe0, 0xf0, 0x87, 0xbc, 0xfb, 0x40, 0x21, 0x3e, 0x60, 0x44, 0xb, 0x3c,
  0xb5, 0xc8, 0xa8, 0x3e, 0x9e, 0x24, 0x0, 0xbe, 0x2d, 0xc3, 0x26, 0xbe,
  0x20, 0xbd, 0x82, 0x3e, 0xfe, 0x9e, 0x96, 0xbe, 0xa2, 0xfa, 0xb0, 0xbe,
  0xf7, 0xf4, 0x7b, 0xbe, 0x64, 0x9b, 0xec, 0x3e, 0xa, 0xce, 0xab, 0x3c,
  0xb6, 0x18, 0x94, 0xbe, 0xf7, 0x6e, 0xa0, 0x3e, 0x1c, 0xec, 0xf, 0x3e,
  0x4f, 0x56, 0x90, 0xbe, 0xb8, 0x6e, 0xe3, 0xbd, 0x3e, 0xd6, 0x65, 0x3e,
  0xfe, 0x34, 0x95, 0xbe, 0xcd, 0xe3, 0xb3, 0xbe, 0x8f, 0x2e, 0x28, 0xbe,
  0x11, 0x48, 0xfc, 0x3d, 0x91, 0xfa, 0x89, 0x3e, 0x28, 0x39, 0x39, 0xbd,
  0x15, 0xd0, 0xd3, 0xbe, 0x15, 0x62, 0x78, 0x3e, 0x22, 0x26, 0x81, 0xbe,
  0x99, 0x18, 0x5f, 0x3e, 0x8b, 0xb5, 0x6f, 0xbd, 0x8d, 0x50, 0xdc, 0x3e,
  0xc, 0x4b, 0xa2, 0xbd, 0x36, 0x97, 0x65, 0xbe, 0x58, 0x45, 0x42, 0x3e,
  0x13, 0xf1, 0x1a, 0xbe, 0x56, 0x5a, 0x34, 0x3e, 0x5e, 0xca, 0xe7, 0xbd,
  0xbc, 0xd7, 0x10, 0x3b, 0x38, 0xcd, 0xde, 0xbd, 0x40, 0x14, 0x83, 0x3d,
  0xd6, 0x7, 0x55, 0xbe, 0x61, 0xa2, 0xb9, 0xbe, 0x9, 0xba, 0x41, 0xbe,
  0xb8, 0x96, 0x12, 0xbd, 0x75, 0xbb, 0x7e, 0xbe, 0xee, 0xf8, 0x4e, 0x3c,
  0x6e, 0x1f, 0xac, 0x3e, 0x36, 0x97, 0x7c, 0xbe, 0x39, 0x7e, 0xa7, 0x3d,
  0xad, 0x27, 0xaa, 0x3d, 0x96, 0x19, 0x65, 0x3e, 0xee, 0x72, 0x88, 0xbe,
  0xef, 0x66, 0x83, 0x3e, 0x40, 0x35, 0xb0, 0xbb, 0x29, 0xb1, 0xb2, 0x3e,
  0xbe, 0x93, 0xdf, 0xbd, 0x14, 0x93, 0x52, 0xbe, 0x9d, 0x1d, 0x32, 0xbd,
  0x40, 0x33, 0x5f, 0xbe, 0xd0, 0x4b, 0xbc, 0x3e, 0x5c, 0x7a, 0x9d, 0xbc,
  0x14, 0xd5, 0x42, 0x3e, 0xb6, 0x84, 0xc8, 0x3e, 0xda, 0x6a, 0x56, 0xbd,
  0x6b, 0x6d, 0xf8, 0xbd, 0xb1, 0x53, 0x7f, 0x3e, 0xd, 0x58, 0xd9, 0xbd,
  0x46, 0xaa, 0x8, 0x3e, 0xa0, 0xc0, 0xb9, 0xbd, 0xf6, 0x87, 0xcb, 0xbd,
  0xa5, 0x9, 0xa1, 0xbe, 0xe0, 0x1a, 0x33, 0xbd, 0x8b, 0x93, 0x51, 0xbc,
  0x94, 0x76, 0x25, 0xbe, 0xca, 0xc5, 0x18, 0x3d, 0xeb, 0xeb, 0xf9, 0xbd,
  0x77, 0xbc, 0xab, 0xbd, 0xb, 0x72, 0x93, 0xbd, 0x30, 0x10, 0x92, 0x3e,
  0x20, 0x94, 0x4, 0x3c, 0x73, 0x52, 0xa1, 0x3e, 0x6d, 0x5, 0x5c, 0xbe,
  0x0, 0xe, 0x66, 0x3d, 0xa1, 0x63, 0xb4, 0xbe, 0x98, 0x7d, 0x8, 0x3e,
  0xf0, 0xc4, 0xaf, 0x3c, 0x23, 0xaf, 0xb6, 0xbd, 0x10, 0x2e, 0x4c, 0xbe,
  0x86, 0x87, 0xf0, 0xbd, 0xaa, 0x85, 0x34, 0xbe, 0x71, 0x98, 0x4e, 0x3e,
  0xe, 0x62, 0x45, 0xbd, 0x6a, 0xcd, 0xf1, 0xbd, 0x4d, 0x6e, 0xe9, 0xba,
  0x47, 0xd, 0xa2, 0xbc, 0x96, 0x3b, 0xa6, 0xbe, 0x65, 0x85, 0x8a, 0xbe,
  0x8e, 0xfb, 0xdb, 0x3d, 0x6a, 0x56, 0xc1, 0x3c, 0xa1, 0x11, 0x53, 0xbe,
  0x53, 0xe2, 0x9f, 0xbe, 0xcc, 0x2e, 0xa8, 0x3e, 0x76, 0xdc, 0xf6, 0xbd,
  0x42, 0x6a, 0xf7, 0x3d, 0x3, 0xfd, 0x78, 0x3e, 0xbc, 0x4d, 0xb, 0x3d,
  0xf5, 0x2c, 0xaf, 0xbe, 0xdb, 0x58, 0x5b, 0xbe, 0xf2, 0xc7, 0xb6, 0xbe,
  0x1c, 0x55, 0x9c, 0x3d, 0x2d, 0xd8, 0x1b, 0x3e, 0x65, 0xba, 0x34, 0xbe,
  0x47, 0x71, 0x82, 0xbd, 0xa8, 0x1a, 0x9d, 0xbe, 0xd7, 0xdb, 0x88, 0xbd,
  0xc0, 0x7a, 0x3f, 0x3c, 0xfa, 0xd5, 0x11, 0xbc, 0xb3, 0xa3, 0x97, 0x3e,
  0x44, 0x9d, 0x28, 0xbd, 0xfc, 0x67, 0x8b, 0xbd, 0xbc, 0x4d, 0xc2, 0xbd,
  0x9e, 0x0, 0xc1, 0x3e, 0x81, 0xa8, 0x2d, 0xbe, 0xf5, 0x13, 0x5c, 0x3e,
  0xdc, 0x25, 0xc3, 0x3d, 0x6a, 0xdb, 0x3b, 0x3e, 0x2a, 0xd8, 0xe5, 0xbc,
  0x76, 0x6, 0xa0, 0xbe, 0xc1, 0x5b, 0x34, 0x3e, 0x9, 0x49, 0x98, 0x3e,
  0xde, 0xfe, 0xff, 0xff, 0x4, 0x0, 0x0, 0x0, 0x80, 0x0, 0x0, 0x0,
  0xc0, 0x8, 0x4, 0x3f, 0x88, 0x52, 0x5c, 0x3e, 0xf, 0xf4, 0xfe, 0x3e,
  0xcf, 0xa5, 0x75, 0xbf, 0x61, 0x96, 0x64, 0xbd, 0x85, 0x73, 0x9b, 0xbd,
  0xdb, 0xd8, 0x77, 0x3e, 0x4d, 0xb8, 0x9, 0xbf, 0x31, 0x32, 0x3e, 0xbe,
  0x9e, 0x7d, 0x11, 0xbe, 0x49, 0x69, 0x88, 0xbf, 0x75, 0x7, 0x8e, 0x3e,
  0x43, 0x56, 0xf, 0x3e, 0xc9, 0xd0, 0xc2, 0xbe, 0x4c, 0xd4, 0x9d, 0x3d,
  0xe, 0xb, 0x77, 0x3e, 0xb9, 0x62, 0x8d, 0xbe, 0x34, 0x79, 0xcf, 0xbe,
  0x31, 0x20, 0xb4, 0xbe, 0xc4, 0x64, 0x9f, 0x3f, 0x4, 0x61, 0xc, 0xbe,
  0xb6, 0x82, 0x9d, 0xbe, 0x6, 0xcb, 0xbf, 0xbe, 0x7c, 0xe3, 0x51, 0x3e,
  0xb2, 0xeb, 0x1, 0x3f, 0x91, 0x40, 0x6e, 0x3f, 0x51, 0x14, 0xa2, 0x3f,
  0xff, 0xaa, 0x1d, 0xbd, 0xfc, 0xa, 0xc5, 0x3e, 0xe0, 0xbd, 0x1b, 0x3d,
  0xe1, 0x7a, 0xae, 0xbe, 0x74, 0x88, 0x7b, 0xbd, 0xc, 0xfa, 0xff, 0xff,
  0x10, 0xfa, 0xff, 0xff, 0xf, 0x0, 0x0, 0x0, 0x4d, 0x4c, 0x49, 0x52,
  0x20, 0x43, 0x6f, 0x6e, 0x76, 0x65, 0x72, 0x74, 0x65, 0x64, 0x2e, 0x0,
  0x1, 0x0, 0x0, 0x0, 0x14, 0x0, 0x0, 0x0, 0x0, 0x0, 0xe, 0x0,
  0x18, 0x0, 0x14, 0x0, 0x10, 0x0, 0xc, 0x0, 0x8, 0x0, 0x4, 0x0,
  0xe, 0x0, 0x0, 0x0, 0x14, 0x0, 0x0, 0x0, 0x1c, 0x0, 0x0, 0x0,
  0x34, 0x1, 0x0, 0x0, 0x38, 0x1, 0x0, 0x0, 0x3c, 0x1, 0x0, 0x0,
  0x4, 0x0, 0x0, 0x0, 0x6d, 0x61, 0x69, 0x6e, 0x0, 0x0, 0x0, 0x0,
  0x4, 0x0, 0x0, 0x0, 0xdc, 0x0, 0x0, 0x0, 0x94, 0x0, 0x0, 0x0,
  0x50, 0x0, 0x0, 0x0, 0x14, 0x0, 0x0, 0x0, 0x0, 0x0, 0xe, 0x0,
  0x1a, 0x0, 0x14, 0x0, 0x10, 0x0, 0xc, 0x0, 0xb, 0x0, 0x4, 0x0,
  0xe, 0x0, 0x0, 0x0, 0x1c, 0x0, 0x0, 0x0, 0x0, 0x0, 0x0, 0x9,
  0x1c, 0x0, 0x0, 0x0, 0x20, 0x0, 0x0, 0x0, 0x1, 0x0, 0x0, 0x0,
  0x0, 0x0, 0x6, 0x0, 0x8, 0x0, 0x4, 0x0, 0x6, 0x0, 0x0, 0x0,
  0x0, 0x0, 0x80, 0x3f, 0x1, 0x0, 0x0, 0x0, 0xa, 0x0, 0x0, 0x0,
  0x1, 0x0, 0x0, 0x0, 0x9, 0x0, 0x0, 0x0, 0xce, 0xff, 0xff, 0xff,
  0x10, 0x0, 0x0, 0x0, 0x0, 0x0, 0x0, 0x8, 0xc, 0x0, 0x0, 0x0,
  0x10, 0x0, 0x0, 0x0, 0xd4, 0xfa, 0xff, 0xff, 0x1, 0x0, 0x0, 0x0,
  0x9, 0x0, 0x0, 0x0, 0x3, 0x0, 0x0, 0x0, 0x8, 0x0, 0x0, 0x0,
  0x1, 0x0, 0x0, 0x0, 0x4, 0x0, 0x0, 0x0, 0x0, 0x0, 0xe, 0x0,
  0x14, 0x0, 0x0, 0x0, 0x10, 0x0, 0xc, 0x0, 0xb, 0x0, 0x4, 0x0,
  0xe, 0x0, 0x0, 0x0, 0x10, 0x0, 0x0, 0x0, 0x0, 0x0, 0x0, 0x8,
  0x10, 0x0, 0x0, 0x0, 0x14, 0x0, 0x0, 0x0, 0xba, 0xff, 0xff, 0xff,
  0x0, 0x0, 0x0, 0x1, 0x1, 0x0, 0x0, 0x0, 0x8, 0x0, 0x0, 0x0,
  0x3, 0x0, 0x0, 0x0, 0x7, 0x0, 0x0, 0x0, 0x2, 0x0, 0x0, 0x0,
  0x3, 0x0, 0x0, 0x0, 0x0, 0x0, 0xe, 0x0, 0x16, 0x0, 0x0, 0x0,
  0x10, 0x0, 0xc, 0x0, 0xb, 0x0, 0x4, 0x0, 0xe, 0x0, 0x0, 0x0,
  0x18, 0x0, 0x0, 0x0, 0x0, 0x0, 0x0, 0x8, 0x18, 0x0, 0x0, 0x0,
  0x1c, 0x0, 0x0, 0x0, 0x0, 0x0, 0x6, 0x0, 0x8, 0x0, 0x7, 0x0,
  0x6, 0x0, 0x0, 0x0, 0x0, 0x0, 0x0, 0x1, 0x1, 0x0, 0x0, 0x0,
  0x7, 0x0, 0x0, 0x0, 0x3, 0x0, 0x0, 0x0, 0x0, 0x0, 0x0, 0x0,
  0x6, 0x0, 0x0, 0x0, 0x5, 0x0, 0x0, 0x0, 0x1, 0x0, 0x0, 0x0,
  0xa, 0x0, 0x0, 0x0, 0x1, 0x0, 0x0, 0x0, 0x0, 0x0, 0x0, 0x0,
  0xb, 0x0, 0x0, 0x0, 0x44, 0x4, 0x0, 0x0, 0xec, 0x3, 0x0, 0x0,
  0x94, 0x3, 0x0, 0x0, 0x34, 0x3, 0x0, 0x0, 0xd4, 0x2, 0x0, 0x0,
  0x78, 0x2, 0x0, 0x0, 0x28, 0x2, 0x0, 0x0, 0x88, 0x1, 0x0, 0x0,
  0xe4, 0x0, 0x0, 0x0, 0x60, 0x0, 0x0, 0x0, 0x4, 0x0, 0x0, 0x0,
  0xfe, 0xfb, 0xff, 0xff, 0x0, 0x0, 0x0, 0x1, 0x14, 0x0, 0x0, 0x0,
  0x1c, 0x0, 0x0, 0x0, 0x1c, 0x0, 0x0, 0x0, 0xb, 0x0, 0x0, 0x0,
  0x34, 0x0, 0x0, 0x0, 0x2, 0x0, 0x0, 0x0, 0xff, 0xff, 0xff, 0xff,
  0x2, 0x0, 0x0, 0x0, 0xe8, 0xfb, 0xff, 0xff, 0x1b, 0x0, 0x0, 0x0,
  0x53, 0x74, 0x61, 0x74, 0x65, 0x66, 0x75, 0x6c, 0x50, 0x61, 0x72, 0x74,
  0x69, 0x74, 0x69, 0x6f, 0x6e, 0x65, 0x64, 0x43, 0x61, 0x6c, 0x6c, 0x5f,
  0x31, 0x3a, 0x30, 0x0, 0x2, 0x0, 0x0, 0x0, 0x1, 0x0, 0x0, 0x0,
  0x2, 0x0, 0x0, 0x0, 0x56, 0xfc, 0xff, 0xff, 0x0, 0x0, 0x0, 0x1,
  0x14, 0x0, 0x0, 0x0, 0x1c, 0x0, 0x0, 0x0, 0x1c, 0x0, 0x0, 0x0,
  0xa, 0x0, 0x0, 0x0, 0x5c, 0x0, 0x0, 0x0, 0x2, 0x0, 0x0, 0x0,
  0xff, 0xff, 0xff, 0xff, 0x2, 0x0, 0x0, 0x0, 0x40, 0xfc, 0xff, 0xff,
  0x42, 0x0, 0x0, 0x0, 0x73, 0x65, 0x71, 0x75, 0x65, 0x6e, 0x74, 0x69,
  0x61, 0x6c, 0x5f, 0x33, 0x5f, 0x31, 0x2f, 0x64, 0x65, 0x6e, 0x73, 0x65,
  0x5f, 0x31, 0x31, 0x5f, 0x31, 0x2f, 0x4d, 0x61, 0x74, 0x4d, 0x75, 0x6c,
  0x3b, 0x73, 0x65, 0x71, 0x75, 0x65, 0x6e, 0x74, 0x69, 0x61, 0x6c, 0x5f,
  0x33, 0x5f, 0x31, 0x2f, 0x64, 0x65, 0x6e, 0x73, 0x65, 0x5f, 0x31, 0x31,
  0x5f, 0x31, 0x2f, 0x42, 0x69, 0x61, 0x73, 0x41, 0x64, 0x64, 0x0, 0x0,
  0x2, 0x0, 0x0, 0x0, 0x1, 0x0, 0x0, 0x0, 0x2, 0x0, 0x0, 0x0,
  0xd6, 0xfc, 0xff, 0xff, 0x0, 0x0, 0x0, 0x1, 0x14, 0x0, 0x0, 0x0,
  0x1c, 0x0, 0x0, 0x0, 0x1c, 0x0, 0x0, 0x0, 0x9, 0x0, 0x0, 0x0,
  0x7c, 0x0, 0x0, 0x0, 0x2, 0x0, 0x0, 0x0, 0xff, 0xff, 0xff, 0xff,
  0x10, 0x0, 0x0, 0x0, 0xc0, 0xfc, 0xff, 0xff, 0x61, 0x0, 0x0, 0x0,
  0x73, 0x65, 0x71, 0x75, 0x65, 0x6e, 0x74, 0x69, 0x61, 0x6c, 0x5f, 0x33,
  0x5f, 0x31, 0x2f, 0x64, 0x65, 0x6e, 0x73, 0x65, 0x5f, 0x31, 0x30, 0x5f,
  0x31, 0x2f, 0x4d, 0x61, 0x74, 0x4d, 0x75, 0x6c, 0x3b, 0x73, 0x65, 0x71,
  0x75, 0x65, 0x6e, 0x74, 0x69, 0x61, 0x6c, 0x5f, 0x33, 0x5f, 0x31, 0x2f,
  0x64, 0x65, 0x6e, 0x73, 0x65, 0x5f, 0x31, 0x30, 0x5f, 0x31, 0x2f, 0x52,
  0x65, 0x6c, 0x75, 0x3b, 0x73, 0x65, 0x71, 0x75, 0x65, 0x6e, 0x74, 0x69,
  0x61, 0x6c, 0x5f, 0x33, 0x5f, 0x31, 0x2f, 0x64, 0x65, 0x6e, 0x73, 0x65,
  0x5f, 0x31, 0x30, 0x5f, 0x31, 0x2f, 0x42, 0x69, 0x61, 0x73, 0x41, 0x64,
  0x64, 0x0, 0x0, 0x0, 0x2, 0x0, 0x0, 0x0, 0x1, 0x0, 0x0, 0x0,
  0x10, 0x0, 0x0, 0x0, 0x76, 0xfd, 0xff, 0xff, 0x0, 0x0, 0x0, 0x1,
  0x14, 0x0, 0x0, 0x0, 0x1c, 0x0, 0x0, 0x0, 0x1c, 0x0, 0x0, 0x0,
  0x8, 0x0, 0x0, 0x0, 0x78, 0x0, 0x0, 0x0, 0x2, 0x0, 0x0, 0x0,
  0xff, 0xff, 0xff, 0xff, 0x20, 0x0, 0x0, 0x0, 0x60, 0xfd, 0xff, 0xff,
  0x5e, 0x0, 0x0, 0x0, 0x73, 0x65, 0x71, 0x75, 0x65, 0x6e, 0x74, 0x69,
  0x61, 0x6c, 0x5f, 0x33, 0x5f, 0x31, 0x2f, 0x64, 0x65, 0x6e, 0x73, 0x65,
  0x5f, 0x39, 0x5f, 0x31, 0x2f, 0x4d, 0x61, 0x74, 0x4d, 0x75, 0x6c, 0x3b,
  0x73, 0x65, 0x71, 0x75, 0x65, 0x6e, 0x74, 0x69, 0x61, 0x6c, 0x5f, 0x33,
  0x5f, 0x31, 0x2f, 0x64, 0x65, 0x6e, 0x73, 0x65, 0x5f, 0x39, 0x5f, 0x31,
  0x2f, 0x52, 0x65, 0x6c, 0x75, 0x3b, 0x73, 0x65, 0x71, 0x75, 0x65, 0x6e,
  0x74, 0x69, 0x61, 0x6c, 0x5f, 0x33, 0x5f, 0x31, 0x2f, 0x64, 0x65, 0x6e,
  0x73, 0x65, 0x5f, 0x39, 0x5f, 0x31, 0x2f, 0x42, 0x69, 0x61, 0x73, 0x41,
  0x64, 0x64, 0x0, 0x0, 0x2, 0x0, 0x0, 0x0, 0x1, 0x0, 0x0, 0x0,
  0x20, 0x0, 0x0, 0x0, 0x66, 0xfe, 0xff, 0xff, 0x0, 0x0, 0x0, 0x1,
  0x10, 0x0, 0x0, 0x0, 0x10, 0x0, 0x0, 0x0, 0x7, 0x0, 0x0, 0x0,
  0x2c, 0x0, 0x0, 0x0, 0xec, 0xfd, 0xff, 0xff, 0x1f, 0x0, 0x0, 0x0,
  0x73, 0x65, 0x71, 0x75, 0x65, 0x6e, 0x74, 0x69, 0x61, 0x6c, 0x5f, 0x33,
  0x5f, 0x31, 0x2f, 0x64, 0x65, 0x6e, 0x73, 0x65, 0x5f, 0x39, 0x5f, 0x31,
  0x2f, 0x4d, 0x61, 0x74, 0x4d, 0x75, 0x6c, 0x0, 0x2, 0x0, 0x0, 0x0,
  0x20, 0x0, 0x0, 0x0, 0xa, 0x0, 0x0, 0x0, 0xb2, 0xfe, 0xff, 0xff,
  0x0, 0x0, 0x0, 0x1, 0x10, 0x0, 0x0, 0x0, 0x10, 0x0, 0x0, 0x0,
  0x6, 0x0, 0x0, 0x0, 0x3c, 0x0, 0x0, 0x0, 0x38, 0xfe, 0xff, 0xff,
  0x2f, 0x0, 0x0, 0x0, 0x73, 0x65, 0x71, 0x75, 0x65, 0x6e, 0x74, 0x69,
  0x61, 0x6c, 0x5f, 0x33, 0x5f, 0x31, 0x2f, 0x64, 0x65, 0x6e, 0x73, 0x65,
  0x5f, 0x39, 0x5f, 0x31, 0x2f, 0x42, 0x69, 0x61, 0x73, 0x41, 0x64, 0x64,
  0x2f, 0x52, 0x65, 0x61, 0x64, 0x56, 0x61, 0x72, 0x69, 0x61, 0x62, 0x6c,
  0x65, 0x4f, 0x70, 0x0, 0x1, 0x0, 0x0, 0x0, 0x20, 0x0, 0x0, 0x0,
  0xa, 0xff, 0xff, 0xff, 0x0, 0x0, 0x0, 0x1, 0x10, 0x0, 0x0, 0x0,
  0x10, 0x0, 0x0, 0x0, 0x5, 0x0, 0x0, 0x0, 0x40, 0x0, 0x0, 0x0,
  0x90, 0xfe, 0xff, 0xff, 0x30, 0x0, 0x0, 0x0, 0x73, 0x65, 0x71, 0x75,
  0x65, 0x6e, 0x74, 0x69, 0x61, 0x6c, 0x5f, 0x33, 0x5f, 0x31, 0x2f, 0x64,
  0x65, 0x6e, 0x73, 0x65, 0x5f, 0x31, 0x31, 0x5f, 0x31, 0x2f, 0x42, 0x69,
  0x61, 0x73, 0x41, 0x64, 0x64, 0x2f, 0x52, 0x65, 0x61, 0x64, 0x56, 0x61,
  0x72, 0x69, 0x61, 0x62, 0x6c, 0x65, 0x4f, 0x70, 0x0, 0x0, 0x0, 0x0,
  0x1, 0x0, 0x0, 0x0, 0x2, 0x0, 0x0, 0x0, 0x66, 0xff, 0xff, 0xff,
  0x0, 0x0, 0x0, 0x1, 0x10, 0x0, 0x0, 0x0, 0x10, 0x0, 0x0, 0x0,
  0x4, 0x0, 0x0, 0x0, 0x40, 0x0, 0x0, 0x0, 0xec, 0xfe, 0xff, 0xff,
  0x30, 0x0, 0x0, 0x0, 0x73, 0x65, 0x71, 0x75, 0x65, 0x6e, 0x74, 0x69,
  0x61, 0x6c, 0x5f, 0x33, 0x5f, 0x31, 0x2f, 0x64, 0x65, 0x6e, 0x73, 0x65,
  0x5f, 0x31, 0x30, 0x5f, 0x31, 0x2f, 0x42, 0x69, 0x61, 0x73, 0x41, 0x64,
  0x64, 0x2f, 0x52, 0x65, 0x61, 0x64, 0x56, 0x61, 0x72, 0x69, 0x61, 0x62,
  0x6c, 0x65, 0x4f, 0x70, 0x0, 0x0, 0x0, 0x0, 0x1, 0x0, 0x0, 0x0,
  0x10, 0x0, 0x0, 0x0, 0xc2, 0xff, 0xff, 0xff, 0x0, 0x0, 0x0, 0x1,
  0x10, 0x0, 0x0, 0x0, 0x10, 0x0, 0x0, 0x0, 0x3, 0x0, 0x0, 0x0,
  0x1c, 0x0, 0x0, 0x0, 0x48, 0xff, 0xff, 0xff, 0xf, 0x0, 0x0, 0x0,
  0x61, 0x72, 0x69, 0x74, 0x68, 0x2e, 0x63, 0x6f, 0x6e, 0x73, 0x74, 0x61,
  0x6e, 0x74, 0x31, 0x0, 0x2, 0x0, 0x0, 0x0, 0x10, 0x0, 0x0, 0x0,
  0x20, 0x0, 0x0, 0x0, 0x0, 0x0, 0x16, 0x0, 0x18, 0x0, 0x14, 0x0,
  0x0, 0x0, 0x10, 0x0, 0xc, 0x0, 0x8, 0x0, 0x0, 0x0, 0x0, 0x0,
  0x0, 0x0, 0x7, 0x0, 0x16, 0x0, 0x0, 0x0, 0x0, 0x0, 0x0, 0x1,
  0x10, 0x0, 0x0, 0x0, 0x10, 0x0, 0x0, 0x0, 0x2, 0x0, 0x0, 0x0,
  0x1c, 0x0, 0x0, 0x0, 0x9c, 0xff, 0xff, 0xff, 0xe, 0x0, 0x0, 0x0,
  0x61, 0x72, 0x69, 0x74, 0x68, 0x2e, 0x63, 0x6f, 0x6e, 0x73, 0x74, 0x61,
  0x6e, 0x74, 0x0, 0x0, 0x2, 0x0, 0x0, 0x0, 0x2, 0x0, 0x0, 0x0,
  0x10, 0x0, 0x0, 0x0, 0x0, 0x0, 0x16, 0x0, 0x1c, 0x0, 0x18, 0x0,
  0x0, 0x0, 0x14, 0x0, 0x10, 0x0, 0xc, 0x0, 0x0, 0x0, 0x0, 0x0,
  0x8, 0x0, 0x7, 0x0, 0x16, 0x0, 0x0, 0x0, 0x0, 0x0, 0x0, 0x1,
  0x14, 0x0, 0x0, 0x0, 0x20, 0x0, 0x0, 0x0, 0x20, 0x0, 0x0, 0x0,
  0x1, 0x0, 0x0, 0x0, 0x40, 0x0, 0x0, 0x0, 0x2, 0x0, 0x0, 0x0,
  0xff, 0xff, 0xff, 0xff, 0xa, 0x0, 0x0, 0x0, 0x4, 0x0, 0x4, 0x0,
  0x4, 0x0, 0x0, 0x0, 0x21, 0x0, 0x0, 0x0, 0x73, 0x65, 0x72, 0x76,
  0x69, 0x6e, 0x67, 0x5f, 0x64, 0x65, 0x66, 0x61, 0x75, 0x6c, 0x74, 0x5f,
  0x6b, 0x65, 0x72, 0x61, 0x73, 0x5f, 0x74, 0x65, 0x6e, 0x73, 0x6f, 0x72,
  0x5f, 0x31, 0x32, 0x3a, 0x30, 0x0, 0x0, 0x0, 0x2, 0x0, 0x0, 0x0,
  0x1, 0x0, 0x0, 0x0, 0xa, 0x0, 0x0, 0x0, 0x2, 0x0, 0x0, 0x0,
  0x20, 0x0, 0x0, 0x0, 0x4, 0x0, 0x0, 0x0, 0xf4, 0xff, 0xff, 0xff,
  0x19, 0x0, 0x0, 0x0, 0x0, 0x0, 0x0, 0x19, 0xc, 0x0, 0xc, 0x0,
  0xb, 0x0, 0x0, 0x0, 0x0, 0x0, 0x4, 0x0, 0xc, 0x0, 0x0, 0x0,
  0x9, 0x0, 0x0, 0x0, 0x0, 0x0, 0x0, 0x9,
};



#endif
