#ifndef DHT_ANOMALY_MODEL_H_
#define DHT_ANOMALY_MODEL_H_


const unsigned char dht_anomaly_model_tflite[] = {
  0x1c, 0x00, 0x00, 0x00, 0x54, 0x46, 0x4c, 0x33, 0x14, 0x00, 0x20, 0x00, 0x1c, 0x00, 0x18, 0x00, 0x14, 0x00, 0x10, 0x00, 0x0c, 0x00, 0x00, 0x00, 0x08, 0x00, 0x04, 0x00, 0x14, 0x00, 0x00, 0x00, 0x1c, 0x00, 0x00, 0x00, 0x98, 0x00, 0x00, 0x00, 0xf0, 0x00, 0x00, 0x00, 0x38, 0x05, 0x00, 0x00, 0x48, 0x05, 0x00, 0x00, 0x0c, 0x0b, 0x00, 0x00, 0x03, 0x00, 0x00, 0x00, 0x01, 0x00, 0x00, 0x00, 0x10, 0x00, 0x00, 0x00, 0x00, 0x00, 0x0a, 0x00, 0x10, 0x00, 0x0c, 0x00, 0x08, 0x00, 0x04, 0x00, 0x0a, 0x00, 0x00, 0x00, 0x0c, 0x00, 0x00, 0x00, 0x1c, 0x00, 0x00, 0x00, 0x3c, 0x00, 0x00, 0x00, 0x0f, 0x00, 0x00, 0x00, 0x73, 0x65, 0x72, 0x76, 0x69, 0x6e, 0x67, 0x5f, 0x64, 0x65, 0x66, 0x61, 0x75, 0x6c, 0x74, 0x00, 0x01, 0x00, 0x00, 0x00, 0x04, 0x00, 0x00, 0x00, 0x90, 0xff, 0xff, 0xff, 0x0a, 0x00, 0x00, 0x00, 0x04, 0x00, 0x00, 0x00, 0x08, 0x00, 0x00, 0x00, 0x6f, 0x75, 0x74, 0x70, 0x75, 0x74, 0x5f, 0x30, 0x00, 0x00, 0x00, 0x00, 0x01, 0x00, 0x00, 0x00, 0x04, 0x00, 0x00, 0x00, 0xae, 0xfa, 0xff, 0xff, 0x04, 0x00, 0x00, 0x00, 0x0c, 0x00, 0x00, 0x00, 0x6b, 0x65, 0x72, 0x61, 0x73, 0x5f, 0x74, 0x65, 0x6e, 0x73, 0x6f, 0x72, 0x00, 0x00, 0x00, 0x00, 0x02, 0x00, 0x00, 0x00, 0x34, 0x00, 0x00, 0x00, 0x04, 0x00, 0x00, 0x00, 0xdc, 0xff, 0xff, 0xff, 0x0d, 0x00, 0x00, 0x00, 0x04, 0x00, 0x00, 0x00, 0x13, 0x00, 0x00, 0x00, 0x43, 0x4f, 0x4e, 0x56, 0x45, 0x52, 0x53, 0x49, 0x4f, 0x4e, 0x5f, 0x4d, 0x45, 0x54, 0x41, 0x44, 0x41, 0x54, 0x41, 0x00, 0x08, 0x00, 0x0c, 0x00, 0x08, 0x00, 0x04, 0x00, 0x08, 0x00, 0x00, 0x00, 0x0c, 0x00, 0x00, 0x00, 0x04, 0x00, 0x00, 0x00, 0x13, 0x00, 0x00, 0x00, 0x6d, 0x69, 0x6e, 0x5f, 0x72, 0x75, 0x6e, 0x74, 0x69, 0x6d, 0x65, 0x5f, 0x76, 0x65, 0x72, 0x73, 0x69, 0x6f, 0x6e, 0x00, 0x0e, 0x00, 0x00, 0x00, 0x44, 0x04, 0x00, 0x00, 0x3c, 0x04, 0x00, 0x00, 0xec, 0x03, 0x00, 0x00, 0xdc, 0x01, 0x00, 0x00, 0xc4, 0x01, 0x00, 0x00, 0x94, 0x01, 0x00, 0x00, 0x44, 0x01, 0x00, 0x00, 0xb4, 0x00, 0x00, 0x00, 0xac, 0x00, 0x00, 0x00, 0xa4, 0x00, 0x00, 0x00, 0x9c, 0x00, 0x00, 0x00, 0x94, 0x00, 0x00, 0x00, 0x74, 0x00, 0x00, 0x00, 0x04, 0x00, 0x00, 0x00, 0x62, 0xfb, 0xff, 0xff, 0x04, 0x00, 0x00, 0x00, 0x60, 0x00, 0x00, 0x00, 0x10, 0x00, 0x00, 0x00, 0x00, 0x00, 0x00, 0x00, 0x08, 0x00, 0x0e, 0x00, 0x08, 0x00, 0x04, 0x00, 0x08, 0x00, 0x00, 0x00, 0x10, 0x00, 0x00, 0x00, 0x24, 0x00, 0x00, 0x00, 0x00, 0x00, 0x06, 0x00, 0x08, 0x00, 0x04, 0x00, 0x06, 0x00, 0x00, 0x00, 0x04, 0x00, 0x00, 0x00, 0x00, 0x00, 0x00, 0x00, 0x0c, 0x00, 0x18, 0x00, 0x14, 0x00, 0x10, 0x00, 0x0c, 0x00, 0x04, 0x00, 0x0c, 0x00, 0x00, 0x00, 0x89, 0xf5, 0x96, 0xa3, 0x79, 0x5f, 0x4c, 0x47, 0x02, 0x00, 0x00, 0x00, 0x02, 0x00, 0x00, 0x00, 0x04, 0x00, 0x00, 0x00, 0x06, 0x00, 0x00, 0x00, 0x32, 0x2e, 0x31, 0x39, 0x2e, 0x30, 0x00, 0x00, 0xce, 0xfb, 0xff, 0xff, 0x04, 0x00, 0x00, 0x00, 0x10, 0x00, 0x00, 0x00, 0x31, 0x2e, 0x35, 0x2e, 0x30, 0x00, 0x00, 0x00, 0x00, 0x00, 0x00, 0x00, 0x00, 0x00, 0x00, 0x00, 0xd4, 0xf6, 0xff, 0xff, 0xd8, 0xf6, 0xff, 0xff, 0xdc, 0xf6, 0xff, 0xff, 0xe0, 0xf6, 0xff, 0xff, 0xfa, 0xfb, 0xff, 0xff, 0x04, 0x00, 0x00, 0x00, 0x80, 0x00, 0x00, 0x00, 0x88, 0x92, 0xa7, 0x3e, 0x63, 0xa7, 0xca, 0xbe, 0x65, 0x8f, 0x5c, 0xbe, 0xc3, 0x6d, 0x26, 0xbf, 0xc3, 0xb1, 0x5e, 0xbe, 0x91, 0x33, 0x29, 0x3e, 0x6c, 0xb3, 0x0d, 0x3e, 0x3c, 0xc5, 0xc9, 0x3e, 0xfd, 0x24, 0x80, 0x3d, 0xaa, 0xff, 0x7e, 0x3e, 0x51, 0xe5, 0x28, 0xbf, 0xa6, 0xac, 0x30, 0xbf, 0xc5, 0x63, 0x1e, 0xbe, 0xec, 0x75, 0xc0, 0x3e, 0x99, 0x8b, 0x19, 0xbf, 0x77, 0x29, 0x11, 0xbf, 0x6b, 0x01, 0x28, 0xbe, 0xdf, 0xfe, 0xd2, 0x3e, 0xc5, 0x76, 0xb4, 0x3c, 0x65, 0xc0, 0xc2, 0x3e, 0x61, 0x41, 0xc0, 0xbe, 0x50, 0x7c, 0x86, 0xbe, 0xb9, 0x0e, 0xa2, 0x3d, 0xbe, 0x6c, 0x63, 0xbc, 0x37, 0xb5, 0x46, 0x3e, 0x25, 0xf1, 0xd9, 0x3e, 0xdb, 0x9a, 0xc8, 0xbd, 0x03, 0x51, 0x03, 0x3e, 0x5e, 0x19, 0x8b, 0x3e, 0x7b, 0xb2, 0xa2, 0xbd, 0xc6, 0x4e, 0x9e, 0xbe, 0x86, 0xef, 0x1b, 0xbf, 0x86, 0xfc, 0xff, 0xff, 0x04, 0x00, 0x00, 0x00, 0x40, 0x00, 0x00, 0x00, 0x06, 0xed, 0x24, 0xbe, 0x87, 0x91, 0xd9, 0x3e, 0xb2, 0xe9, 0xa3, 0x3f, 0x4b, 0x97, 0x01, 0x40, 0xd8, 0x41, 0x58, 0xc0, 0xfa, 0xd5, 0xff, 0x3e, 0xbc, 0x01, 0x91, 0xbf, 0xed, 0x96, 0x0e, 0x3f, 0x1d, 0xd6, 0x66, 0x40, 0x04, 0xe8, 0x3a, 0xc0, 0x1e, 0x00, 0xc6, 0x3e, 0xe8, 0xbf, 0xe9, 0xbf, 0x00, 0xdc, 0x16, 0xc0, 0xcd, 0x56, 0x25, 0xc0, 0xd7, 0x81, 0xec, 0xbf, 0xbc, 0x55, 0x2c, 0x3f, 0xd2, 0xfc, 0xff, 0xff, 0x04, 0x00, 0x00, 0x00, 0x20, 0x00, 0x00, 0x00, 0xde, 0x7e, 0x48, 0x40, 0x67, 0xd0, 0xb4, 0xbc, 0x46, 0x7f, 0xe2, 0x3d, 0x31, 0x6b, 0xab, 0x3e, 0xf6, 0x5a, 0x8f, 0xbd, 0x5b, 0xe7, 0xc0, 0xbf, 0x1c, 0x1b, 0xfb, 0xbf, 0x6a, 0xa8, 0x28, 0x40, 0xfe, 0xfc, 0xff, 0xff, 0x04, 0x00, 0x00, 0x00, 0x08, 0x00, 0x00, 0x00, 0x5c, 0x43, 0x1e, 0x40, 0x67, 0x43, 0x1e, 0xc0, 0x12, 0xfd, 0xff, 0xff, 0x04, 0x00, 0x00, 0x00, 0x00, 0x02, 0x00, 0x00, 0xfd, 0x14, 0x0a, 0xbf, 0xda, 0xcf, 0xba, 0xbe, 0xe3, 0x83, 0x4d, 0x3d, 0x89, 0x0a, 0xb1, 0x3e, 0x9c, 0x5a, 0x18, 0xbf, 0x64, 0x36, 0x06, 0xbe, 0x51, 0x51, 0x39, 0xbe, 0x6b, 0x59, 0xbb, 0xbe, 0x13, 0x34, 0xd4, 0x3e, 0x99, 0x8c, 0x18, 0xbe, 0xba, 0x69, 0x98, 0xbe, 0x11, 0xe6, 0x8d, 0xbf, 0x63, 0xd5, 0x2c, 0xbe, 0x67, 0x51, 0x01, 0xbf, 0x74, 0xcc, 0xa3, 0xbe, 0xb1, 0x7e, 0xf1, 0xbe, 0x00, 0x84, 0xec, 0xbd, 0x58, 0xaa, 0x33, 0xbe, 0xa8, 0xeb, 0xcd, 0xbe, 0x41, 0xe1, 0xbc, 0xbe, 0xf4, 0xdd, 0xe2, 0x3a, 0x60, 0xce, 0x83, 0xbd, 0x8c, 0x12, 0x90, 0xbe, 0x50, 0xf7, 0xe0, 0xbd, 0xe7, 0x1e, 0xb2, 0x3e, 0x86, 0x18, 0xc6, 0x3d, 0x40, 0xbb, 0xcb, 0xbe, 0x92, 0x63, 0xa2, 0xbe, 0x61, 0x05, 0xc7, 0x3d, 0x8d, 0x02, 0x69, 0xbd, 0xfa, 0x79, 0xb1, 0xbe, 0x94, 0x02, 0x9f, 0xbe, 0x0e, 0x34, 0x8d, 0xbc, 0x12, 0xac, 0x1e, 0x3f, 0x73, 0x6e, 0x66, 0x3d, 0xde, 0x4c, 0xb1, 0x3e, 0xd6, 0xaa, 0x02, 0x3e, 0xa8, 0x61, 0x66, 0x3e, 0x50, 0xa8, 0xcd, 0xbe, 0x41, 0x2a, 0x3b, 0x3e, 0xce, 0xfd, 0xfb, 0xbd, 0xe4, 0x78, 0x39, 0xbe, 0x86, 0x97, 0x68, 0x3f, 0xa7, 0xc2, 0x06, 0x3f, 0x48, 0x9e, 0x5d, 0xbe, 0x2d, 0x65, 0xe1, 0x3e, 0xc8, 0x24, 0x18, 0x3d, 0x64, 0x05, 0x40, 0x3f, 0x66, 0x4d, 0xae, 0xbe, 0xa4, 0xa3, 0x4c, 0x3f, 0xb9, 0xdb, 0x7f, 0x3e, 0x70, 0x09, 0x23, 0xbd, 0xeb, 0xed, 0xb3, 0xbc, 0x9d, 0xce, 0xf6, 0x3e, 0x9a, 0x9a, 0x92, 0xbe, 0x03, 0xef, 0x47, 0x3f, 0x92, 0x2d, 0x82, 0x3e, 0xa7, 0x30, 0x90, 0xbd, 0x67, 0xe4, 0x78, 0xbe, 0x78, 0x1c, 0x20, 0x3e, 0xf5, 0x25, 0x3f, 0xbe, 0xb7, 0xc8, 0x02, 0x3f, 0x25, 0xc9, 0x5c, 0x3e, 0xbe, 0x6c, 0x44, 0x3f, 0x48, 0x8b, 0x45, 0x3c, 0x46, 0x57, 0x78, 0xbe, 0x6d, 0x2e, 0xc1, 0xbe, 0x78, 0xff, 0xf8, 0xbe, 0x76, 0x09, 0xb0, 0xbe, 0x07, 0xf6, 0xcf, 0x3d, 0x0c, 0xb9, 0x50, 0x3e, 0x2b, 0x51, 0xbf, 0x3e, 0x37, 0xbd, 0xc0, 0xbe, 0x98, 0xce, 0x01, 0x3e, 0xd7, 0x6a, 0x6c, 0xbc, 0x95, 0xb9, 0x06, 0xbf, 0x10, 0xea, 0x7a, 0xbe, 0xf8, 0x0c, 0x02, 0xbf, 0x1b, 0x27, 0xc8, 0x3c, 0xa6, 0x19, 0x8c, 0xbd, 0xdc, 0x81, 0x27, 0xbe, 0x3f, 0x6d, 0x29, 0x3f, 0xe3, 0x9d, 0xd1, 0xbf, 0x2f, 0x40, 0x3a, 0x3d, 0x03, 0x75, 0xac, 0x3e, 0x33, 0x60, 0x07, 0x3f, 0x59, 0x6f, 0x80, 0xbe, 0x49, 0xc1, 0xb1, 0x3e, 0xf3, 0xf0, 0x7c, 0xbe, 0xfc, 0xc7, 0x38, 0x3e, 0x23, 0xce, 0x64, 0x3e, 0x50, 0x8a, 0x17, 0x3f, 0xac, 0xe3, 0x33, 0x3e, 0x4d, 0xeb, 0x8d, 0xbc, 0xc5, 0xdf, 0xe5, 0x3e, 0x99, 0x72, 0x63, 0x3e, 0x50, 0x58, 0xc6, 0xbd, 0x94, 0x4b, 0x4e, 0x3f, 0x70, 0x3f, 0x43, 0x3d, 0xad, 0x67, 0xbe, 0xbe, 0x63, 0x8a, 0x3f, 0x3f, 0x2e, 0x05, 0x0b, 0x3e, 0xdd, 0x3f, 0x02, 0x3f, 0x2e, 0x67, 0x49, 0x3d, 0x73, 0xc8, 0xe7, 0xbc, 0xe8, 0x3c, 0x38, 0x3d, 0xb8, 0xdc, 0xdf, 0x3d, 0x5a, 0xca, 0xf5, 0xbe, 0xdd, 0x32, 0x02, 0xbe, 0x17, 0xe6, 0x41, 0x3f, 0x0a, 0x62, 0x84, 0xc0, 0xe0, 0x97, 0x2e, 0x3e, 0x86, 0x3d, 0x11, 0x3f, 0xbe, 0x25, 0x32, 0x3f, 0x9b, 0x76, 0x55, 0x3f, 0x67, 0x2a, 0x56, 0xbd, 0x61, 0xbf, 0x18, 0xbf, 0x7b, 0x5c, 0x61, 0x3f, 0xc4, 0xd2, 0xfd, 0x3d, 0x07, 0xab, 0x65, 0x3f, 0x7f, 0x19, 0xec, 0x3e, 0x1f, 0x18, 0xab, 0xbe, 0xe9, 0x12, 0x68, 0x3f, 0xa1, 0x97, 0x19, 0x3f, 0x35, 0x9d, 0xfb, 0xbd, 0x37, 0x33, 0x47, 0xbf, 0x8e, 0x7c, 0x60, 0x3e, 0x10, 0xf7, 0xc2, 0x3e, 0x1e, 0xff, 0xff, 0xff, 0x04, 0x00, 0x00, 0x00, 0x40, 0x00, 0x00, 0x00, 0x9e, 0x2f, 0x18, 0x40, 0x50, 0x63, 0x79, 0xbd, 0x45, 0x0c, 0xe2, 0xbd, 0x4a, 0xc7, 0xa0, 0xbe, 0x77, 0x17, 0xbf, 0xbe, 0x94, 0xb1, 0xfc, 0xbe, 0x6b, 0xb3, 0xd0, 0xbc, 0xa5, 0x88, 0x82, 0xc0, 0x47, 0x36, 0x4f, 0xc0, 0x32, 0x72, 0x3f, 0x3f, 0x80, 0x8a, 0x33, 0x3f, 0x97, 0xf5, 0x38, 0x3f, 0x48, 0x1a, 0x10, 0xbf, 0x2a, 0x77, 0x8e, 0x3f, 0x5e, 0x24, 0x74, 0x3f, 0x95, 0x49, 0xa6, 0x40, 0x54, 0xfa, 0xff, 0xff, 0x58, 0xfa, 0xff, 0xff, 0x0f, 0x00, 0x00, 0x00, 0x4d, 0x4c, 0x49, 0x52, 0x20, 0x43, 0x6f, 0x6e, 0x76, 0x65, 0x72, 0x74, 0x65, 0x64, 0x2e, 0x00, 0x01, 0x00, 0x00, 0x00, 0x14, 0x00, 0x00, 0x00, 0x00, 0x00, 0x0e, 0x00, 0x18, 0x00, 0x14, 0x00, 0x10, 0x00, 0x0c, 0x00, 0x08, 0x00, 0x04, 0x00, 0x0e, 0x00, 0x00, 0x00, 0x14, 0x00, 0x00, 0x00, 0x1c, 0x00, 0x00, 0x00, 0x34, 0x01, 0x00, 0x00, 0x38, 0x01, 0x00, 0x00, 0x3c, 0x01, 0x00, 0x00, 0x04, 0x00, 0x00, 0x00, 0x6d, 0x61, 0x69, 0x6e, 0x00, 0x00, 0x00, 0x00, 0x04, 0x00, 0x00, 0x00, 0xdc, 0x00, 0x00, 0x00, 0x94, 0x00, 0x00, 0x00, 0x50, 0x00, 0x00, 0x00, 0x14, 0x00, 0x00, 0x00, 0x00, 0x00, 0x0e, 0x00, 0x1a, 0x00, 0x14, 0x00, 0x10, 0x00, 0x0c, 0x00, 0x0b, 0x00, 0x04, 0x00, 0x0e, 0x00, 0x00, 0x00, 0x1c, 0x00, 0x00, 0x00, 0x00, 0x00, 0x00, 0x09, 0x1c, 0x00, 0x00, 0x00, 0x20, 0x00, 0x00, 0x00, 0x01, 0x00, 0x00, 0x00, 0x00, 0x00, 0x06, 0x00, 0x08, 0x00, 0x04, 0x00, 0x06, 0x00, 0x00, 0x00, 0x00, 0x00, 0x80, 0x3f, 0x01, 0x00, 0x00, 0x00, 0x0a, 0x00, 0x00, 0x00, 0x01, 0x00, 0x00, 0x00, 0x09, 0x00, 0x00, 0x00, 0xce, 0xff, 0xff, 0xff, 0x10, 0x00, 0x00, 0x00, 0x00, 0x00, 0x00, 0x08, 0x0c, 0x00, 0x00, 0x00, 0x10, 0x00, 0x00, 0x00, 0x1c, 0xfb, 0xff, 0xff, 0x01, 0x00, 0x00, 0x00, 0x09, 0x00, 0x00, 0x00, 0x03, 0x00, 0x00, 0x00, 0x08, 0x00, 0x00, 0x00, 0x01, 0x00, 0x00, 0x00, 0x03, 0x00, 0x00, 0x00, 0x00, 0x00, 0x0e, 0x00, 0x14, 0x00, 0x00, 0x00, 0x10, 0x00, 0x0c, 0x00, 0x0b, 0x00, 0x04, 0x00, 0x0e, 0x00, 0x00, 0x00, 0x10, 0x00, 0x00, 0x00, 0x00, 0x00, 0x00, 0x08, 0x10, 0x00, 0x00, 0x00, 0x14, 0x00, 0x00, 0x00, 0xba, 0xff, 0xff, 0xff, 0x00, 0x00, 0x00, 0x01, 0x01, 0x00, 0x00, 0x00, 0x08, 0x00, 0x00, 0x00, 0x03, 0x00, 0x00, 0x00, 0x07, 0x00, 0x00, 0x00, 0x02, 0x00, 0x00, 0x00, 0x04, 0x00, 0x00, 0x00, 0x00, 0x00, 0x0e, 0x00, 0x16, 0x00, 0x00, 0x00, 0x10, 0x00, 0x0c, 0x00, 0x0b, 0x00, 0x04, 0x00, 0x0e, 0x00, 0x00, 0x00, 0x18, 0x00, 0x00, 0x00, 0x00, 0x00, 0x00, 0x08, 0x18, 0x00, 0x00, 0x00, 0x1c, 0x00, 0x00, 0x00, 0x00, 0x00, 0x06, 0x00, 0x08, 0x00, 0x07, 0x00, 0x06, 0x00, 0x00, 0x00, 0x00, 0x00, 0x00, 0x01, 0x01, 0x00, 0x00, 0x00, 0x07, 0x00, 0x00, 0x00, 0x03, 0x00, 0x00, 0x00, 0x00, 0x00, 0x00, 0x00, 0x06, 0x00, 0x00, 0x00, 0x05, 0x00, 0x00, 0x00, 0x01, 0x00, 0x00, 0x00, 0x0a, 0x00, 0x00, 0x00, 0x01, 0x00, 0x00, 0x00, 0x00, 0x00, 0x00, 0x00, 0x0b, 0x00, 0x00, 0x00, 0xfc, 0x03, 0x00, 0x00, 0xa4, 0x03, 0x00, 0x00, 0x4c, 0x03, 0x00, 0x00, 0x10, 0x03, 0x00, 0x00, 0xb4, 0x02, 0x00, 0x00, 0x5c, 0x02, 0x00, 0x00, 0x10, 0x02, 0x00, 0x00, 0x7c, 0x01, 0x00, 0x00, 0xe0, 0x00, 0x00, 0x00, 0x60, 0x00, 0x00, 0x00, 0x04, 0x00, 0x00, 0x00, 0x46, 0xfc, 0xff, 0xff, 0x00, 0x00, 0x00, 0x01, 0x14, 0x00, 0x00, 0x00, 0x1c, 0x00, 0x00, 0x00, 0x1c, 0x00, 0x00, 0x00, 0x0b, 0x00, 0x00, 0x00, 0x34, 0x00, 0x00, 0x00, 0x02, 0x00, 0x00, 0x00, 0xff, 0xff, 0xff, 0xff, 0x02, 0x00, 0x00, 0x00, 0x30, 0xfc, 0xff, 0xff, 0x1b, 0x00, 0x00, 0x00, 0x53, 0x74, 0x61, 0x74, 0x65, 0x66, 0x75, 0x6c, 0x50, 0x61, 0x72, 0x74, 0x69, 0x74, 0x69, 0x6f, 0x6e, 0x65, 0x64, 0x43, 0x61, 0x6c, 0x6c, 0x5f, 0x31, 0x3a, 0x30, 0x00, 0x02, 0x00, 0x00, 0x00, 0x01, 0x00, 0x00, 0x00, 0x02, 0x00, 0x00, 0x00, 0x9e, 0xfc, 0xff, 0xff, 0x00, 0x00, 0x00, 0x01, 0x14, 0x00, 0x00, 0x00, 0x1c, 0x00, 0x00, 0x00, 0x1c, 0x00, 0x00, 0x00, 0x0a, 0x00, 0x00, 0x00, 0x58, 0x00, 0x00, 0x00, 0x02, 0x00, 0x00, 0x00, 0xff, 0xff, 0xff, 0xff, 0x02, 0x00, 0x00, 0x00, 0x88, 0xfc, 0xff, 0xff, 0x3c, 0x00, 0x00, 0x00, 0x73, 0x65, 0x71, 0x75, 0x65, 0x6e, 0x74, 0x69, 0x61, 0x6c, 0x5f, 0x31, 0x2f, 0x64, 0x65, 0x6e, 0x73, 0x65, 0x5f, 0x32, 0x5f, 0x31, 0x2f, 0x4d, 0x61, 0x74, 0x4d, 0x75, 0x6c, 0x3b, 0x73, 0x65, 0x71, 0x75, 0x65, 0x6e, 0x74, 0x69, 0x61, 0x6c, 0x5f, 0x31, 0x2f, 0x64, 0x65, 0x6e, 0x73, 0x65, 0x5f, 0x32, 0x5f, 0x31, 0x2f, 0x42, 0x69, 0x61, 0x73, 0x41, 0x64, 0x64, 0x00, 0x00, 0x00, 0x00, 0x02, 0x00, 0x00, 0x00, 0x01, 0x00, 0x00, 0x00, 0x02, 0x00, 0x00, 0x00, 0x1a, 0xfd, 0xff, 0xff, 0x00, 0x00, 0x00, 0x01, 0x14, 0x00, 0x00, 0x00, 0x1c, 0x00, 0x00, 0x00, 0x1c, 0x00, 0x00, 0x00, 0x09, 0x00, 0x00, 0x00, 0x74, 0x00, 0x00, 0x00, 0x02, 0x00, 0x00, 0x00, 0xff, 0xff, 0xff, 0xff, 0x08, 0x00, 0x00, 0x00, 0x04, 0xfd, 0xff, 0xff, 0x58, 0x00, 0x00, 0x00, 0x73, 0x65, 0x71, 0x75, 0x65, 0x6e, 0x74, 0x69, 0x61, 0x6c, 0x5f, 0x31, 0x2f, 0x64, 0x65, 0x6e, 0x73, 0x65, 0x5f, 0x31, 0x5f, 0x32, 0x2f, 0x4d, 0x61, 0x74, 0x4d, 0x75, 0x6c, 0x3b, 0x73, 0x65, 0x71, 0x75, 0x65, 0x6e, 0x74, 0x69, 0x61, 0x6c, 0x5f, 0x31, 0x2f, 0x64, 0x65, 0x6e, 0x73, 0x65, 0x5f, 0x31, 0x5f, 0x32, 0x2f, 0x52, 0x65, 0x6c, 0x75, 0x3b, 0x73, 0x65, 0x71, 0x75, 0x65, 0x6e, 0x74, 0x69, 0x61, 0x6c, 0x5f, 0x31, 0x2f, 0x64, 0x65, 0x6e, 0x73, 0x65, 0x5f, 0x31, 0x5f, 0x32, 0x2f, 0x42, 0x69, 0x61, 0x73, 0x41, 0x64, 0x64, 0x00, 0x00, 0x00, 0x00, 0x02, 0x00, 0x00, 0x00, 0x01, 0x00, 0x00, 0x00, 0x08, 0x00, 0x00, 0x00, 0xb2, 0xfd, 0xff, 0xff, 0x00, 0x00, 0x00, 0x01, 0x14, 0x00, 0x00, 0x00, 0x1c, 0x00, 0x00, 0x00, 0x1c, 0x00, 0x00, 0x00, 0x08, 0x00, 0x00, 0x00, 0x6c, 0x00, 0x00, 0x00, 0x02, 0x00, 0x00, 0x00, 0xff, 0xff, 0xff, 0xff, 0x10, 0x00, 0x00, 0x00, 0x9c, 0xfd, 0xff, 0xff, 0x52, 0x00, 0x00, 0x00, 0x73, 0x65, 0x71, 0x75, 0x65, 0x6e, 0x74, 0x69, 0x61, 0x6c, 0x5f, 0x31, 0x2f, 0x64, 0x65, 0x6e, 0x73, 0x65, 0x5f, 0x31, 0x2f, 0x4d, 0x61, 0x74, 0x4d, 0x75, 0x6c, 0x3b, 0x73, 0x65, 0x71, 0x75, 0x65, 0x6e, 0x74, 0x69, 0x61, 0x6c, 0x5f, 0x31, 0x2f, 0x64, 0x65, 0x6e, 0x73, 0x65, 0x5f, 0x31, 0x2f, 0x52, 0x65, 0x6c, 0x75, 0x3b, 0x73, 0x65, 0x71, 0x75, 0x65, 0x6e, 0x74, 0x69, 0x61, 0x6c, 0x5f, 0x31, 0x2f, 0x64, 0x65, 0x6e, 0x73, 0x65, 0x5f, 0x31, 0x2f, 0x42, 0x69, 0x61, 0x73, 0x41, 0x64, 0x64, 0x00, 0x00, 0x02, 0x00, 0x00, 0x00, 0x01, 0x00, 0x00, 0x00, 0x10, 0x00, 0x00, 0x00, 0x96, 0xfe, 0xff, 0xff, 0x00, 0x00, 0x00, 0x01, 0x10, 0x00, 0x00, 0x00, 0x10, 0x00, 0x00, 0x00, 0x07, 0x00, 0x00, 0x00, 0x28, 0x00, 0x00, 0x00, 0x1c, 0xfe, 0xff, 0xff, 0x1b, 0x00, 0x00, 0x00, 0x73, 0x65, 0x71, 0x75, 0x65, 0x6e, 0x74, 0x69, 0x61, 0x6c, 0x5f, 0x31, 0x2f, 0x64, 0x65, 0x6e, 0x73, 0x65, 0x5f, 0x31, 0x2f, 0x4d, 0x61, 0x74, 0x4d, 0x75, 0x6c, 0x00, 0x02, 0x00, 0x00, 0x00, 0x10, 0x00, 0x00, 0x00, 0x02, 0x00, 0x00, 0x00, 0xde, 0xfe, 0xff, 0xff, 0x00, 0x00, 0x00, 0x01, 0x10, 0x00, 0x00, 0x00, 0x10, 0x00, 0x00, 0x00, 0x06, 0x00, 0x00, 0x00, 0x38, 0x00, 0x00, 0x00, 0x64, 0xfe, 0xff, 0xff, 0x2b, 0x00, 0x00, 0x00, 0x73, 0x65, 0x71, 0x75, 0x65, 0x6e, 0x74, 0x69, 0x61, 0x6c, 0x5f, 0x31, 0x2f, 0x64, 0x65, 0x6e, 0x73, 0x65, 0x5f, 0x31, 0x2f, 0x42, 0x69, 0x61, 0x73, 0x41, 0x64, 0x64, 0x2f, 0x52, 0x65, 0x61, 0x64, 0x56, 0x61, 0x72, 0x69, 0x61, 0x62, 0x6c, 0x65, 0x4f, 0x70, 0x00, 0x01, 0x00, 0x00, 0x00, 0x10, 0x00, 0x00, 0x00, 0x32, 0xff, 0xff, 0xff, 0x00, 0x00, 0x00, 0x01, 0x10, 0x00, 0x00, 0x00, 0x10, 0x00, 0x00, 0x00, 0x05, 0x00, 0x00, 0x00, 0x3c, 0x00, 0x00, 0x00, 0xb8, 0xfe, 0xff, 0xff, 0x2d, 0x00, 0x00, 0x00, 0x73, 0x65, 0x71, 0x75, 0x65, 0x6e, 0x74, 0x69, 0x61, 0x6c, 0x5f, 0x31, 0x2f, 0x64, 0x65, 0x6e, 0x73, 0x65, 0x5f, 0x31, 0x5f, 0x32, 0x2f, 0x42, 0x69, 0x61, 0x73, 0x41, 0x64, 0x64, 0x2f, 0x52, 0x65, 0x61, 0x64, 0x56, 0x61, 0x72, 0x69, 0x61, 0x62, 0x6c, 0x65, 0x4f, 0x70, 0x00, 0x00, 0x00, 0x01, 0x00, 0x00, 0x00, 0x08, 0x00, 0x00, 0x00, 0x8a, 0xff, 0xff, 0xff, 0x00, 0x00, 0x00, 0x01, 0x10, 0x00, 0x00, 0x00, 0x10, 0x00, 0x00, 0x00, 0x04, 0x00, 0x00, 0x00, 0x1c, 0x00, 0x00, 0x00, 0x10, 0xff, 0xff, 0xff, 0x0f, 0x00, 0x00, 0x00, 0x61, 0x72, 0x69, 0x74, 0x68, 0x2e, 0x63, 0x6f, 0x6e, 0x73, 0x74, 0x61, 0x6e, 0x74, 0x32, 0x00, 0x01, 0x00, 0x00, 0x00, 0x02, 0x00, 0x00, 0x00, 0xc2, 0xff, 0xff, 0xff, 0x00, 0x00, 0x00, 0x01, 0x10, 0x00, 0x00, 0x00, 0x10, 0x00, 0x00, 0x00, 0x03, 0x00, 0x00, 0x00, 0x1c, 0x00, 0x00, 0x00, 0x48, 0xff, 0xff, 0xff, 0x0f, 0x00, 0x00, 0x00, 0x61, 0x72, 0x69, 0x74, 0x68, 0x2e, 0x63, 0x6f, 0x6e, 0x73, 0x74, 0x61, 0x6e, 0x74, 0x31, 0x00, 0x02, 0x00, 0x00, 0x00, 0x08, 0x00, 0x00, 0x00, 0x10, 0x00, 0x00, 0x00, 0x00, 0x00, 0x16, 0x00, 0x18, 0x00, 0x14, 0x00, 0x00, 0x00, 0x10, 0x00, 0x0c, 0x00, 0x08, 0x00, 0x00, 0x00, 0x00, 0x00, 0x00, 0x00, 0x07, 0x00, 0x16, 0x00, 0x00, 0x00, 0x00, 0x00, 0x00, 0x01, 0x10, 0x00, 0x00, 0x00, 0x10, 0x00, 0x00, 0x00, 0x02, 0x00, 0x00, 0x00, 0x1c, 0x00, 0x00, 0x00, 0x9c, 0xff, 0xff, 0xff, 0x0e, 0x00, 0x00, 0x00, 0x61, 0x72, 0x69, 0x74, 0x68, 0x2e, 0x63, 0x6f, 0x6e, 0x73, 0x74, 0x61, 0x6e, 0x74, 0x00, 0x00, 0x02, 0x00, 0x00, 0x00, 0x02, 0x00, 0x00, 0x00, 0x08, 0x00, 0x00, 0x00, 0x00, 0x00, 0x16, 0x00, 0x1c, 0x00, 0x18, 0x00, 0x00, 0x00, 0x14, 0x00, 0x10, 0x00, 0x0c, 0x00, 0x00, 0x00, 0x00, 0x00, 0x08, 0x00, 0x07, 0x00, 0x16, 0x00, 0x00, 0x00, 0x00, 0x00, 0x00, 0x01, 0x14, 0x00, 0x00, 0x00, 0x20, 0x00, 0x00, 0x00, 0x20, 0x00, 0x00, 0x00, 0x01, 0x00, 0x00, 0x00, 0x3c, 0x00, 0x00, 0x00, 0x02, 0x00, 0x00, 0x00, 0xff, 0xff, 0xff, 0xff, 0x02, 0x00, 0x00, 0x00, 0x04, 0x00, 0x04, 0x00, 0x04, 0x00, 0x00, 0x00, 0x1e, 0x00, 0x00, 0x00, 0x73, 0x65, 0x72, 0x76, 0x69, 0x6e, 0x67, 0x5f, 0x64, 0x65, 0x66, 0x61, 0x75, 0x6c, 0x74, 0x5f, 0x6b, 0x65, 0x72, 0x61, 0x73, 0x5f, 0x74, 0x65, 0x6e, 0x73, 0x6f, 0x72, 0x3a, 0x30, 0x00, 0x00, 0x02, 0x00, 0x00, 0x00, 0x01, 0x00, 0x00, 0x00, 0x02, 0x00, 0x00, 0x00, 0x02, 0x00, 0x00, 0x00, 0x20, 0x00, 0x00, 0x00, 0x04, 0x00, 0x00, 0x00, 0xf4, 0xff, 0xff, 0xff, 0x19, 0x00, 0x00, 0x00, 0x00, 0x00, 0x00, 0x19, 0x0c, 0x00, 0x0c, 0x00, 0x0b, 0x00, 0x00, 0x00, 0x00, 0x00, 0x04, 0x00, 0x0c, 0x00, 0x00, 0x00, 0x09, 0x00, 0x00, 0x00, 0x00, 0x00, 0x00, 0x09
};

const int dht_anomaly_model_tflite_len = 2928;

#endif
